{"0": "\u0100", "1": "\u0101", "2": "\u0102", "3": "\u0103", "4": "\u0104", "5": "\u0105", "6": "\u0106", "7": "\u0107", "8": "\u0108", "9": "\u0109", "10": "\u010a", "11": "\u010b", "12": "\u010c", "13": "\u010d", "14": "\u010e", "15": "\u010f", "16": "\u0110", "17": "\u0111", "18": "\u0112", "19": "\u0113", "20": "\u0114", "21": "\u0115", "22": "\u0116", "23": "\u0117", "24": "\u0118", "25": "\u0119", "26": "\u011a", "27": "\u011b", "28": "\u011c", "29": "\u011d", "30": "\u011e", "31": "\u011f", "32": "\u0120", "33": "!", "34": "\"", "35": "#", "36": "$", "37": "%", "38": "&", "39": "'", "40": "(", "41": ")", "42": "*", "43": "+", "44": ",", "45": "-", "46": ".", "47": "/", "48": "0", "49": "1", "50": "2", "51": "3", "52": "4", "53": "5", "54": "6", "55": "7", "56": "8", "57": "9", "58": ":", "59": ";", "60": "<", "61": "=", "62": ">", "63": "?", "64": "@", "65": "A", "66": "B", "67": "C", "68": "D", "69": "E", "70": "F", "71": "G", "72": "H", "73": "I", "74": "J", "75": "K", "76": "L", "77": "M", "78": "N", "79": "O", "80": "P", "81": "Q", "82": "R", "83": "S", "84": "T", "85": "U", "86": "V", "87": "W", "88": "X", "89": "Y", "90": "Z", "91": "[", "92": "\\", "93": "]", "94": "^", "95": "_", "96": "`", "97": "a", "98": "b", "99": "c", "100": "d", "101": "e", "102": "f", "103": "g", "104": "h", "105": "i", "106": "j", "107": "k", "108": "l", "109": "m", "110": "n", "111": "o", "112": "p", "113": "q", "114": "r", "115": "s", "116": "t", "117": "u", "118": "v", "119": "w", "120": "x", "121": "y", "122": "z", "123": "{", "124": "|", "125": "}", "126": "~", "127": "\u0121", "128": "\u0122", "129": "\u0123", "130": "\u0124", "131": "\u0125", "132": "\u0126", "133": "\u0127", "134": "\u0128", "135": "\u0129", "136": "\u012a", "137": "\u012b", "138": "\u012c", "139": "\u012d", "140": "\u012e", "141": "\u012f", "142": "\u0130", "143": "\u0131", "144": "\u0132", "145": "\u0133", "146": "\u0134", "147": "\u0135", "148": "\u0136", "149": "\u0137", "150": "\u0138", "151": "\u0139", "152": "\u013a", "153": "\u013b", "154": "\u013c", "155": "\u013d", "156": "\u013e", "157": "\u013f", "158": "\u0140", "159": "\u0141", "160": "\u0142", "161": "\u00a1", "162": "\u00a2", "163": "\u00a3", "164": "\u00a4", "165": "\u00a5", "166": "\u00a6", "167": "\u00a7", "168": "\u00a8", "169": "\u00a9", "170": "\u00aa", "171": "\u00ab", "172": "\u00ac", "173": "\u0143", "174": "\u00ae", "175": "\u00af", "176": "\u00b0", "177": "\u00b1", "178": "\u00b2", "179": "\u00b3", "180": "\u00b4", "181": "\u00b5", "182": "\u00b6", "183": "\u00b7", "184": "\u00b8", "185": "\u00b9", "186": "\u00ba", "187": "\u00bb", "188": "\u00bc", "189": "\u00bd", "190": "\u00be", "191": "\u00bf", "192": "\u00c0", "193": "\u00c1", "194": "\u00c2", "195": "\u00c3", "196": "\u00c4", "197": "\u00c5", "198": "\u00c6", "199": "\u00c7", "200": "\u00c8", "201": "\u00c9", "202": "\u00ca", "203": "\u00cb", "204": "\u00cc", "205": "\u00cd", "206": "\u00ce", "207": "\u00cf", "208": "\u00d0", "209": "\u00d1", "210": "\u00d2", "211": "\u00d3", "212": "\u00d4", "213": "\u00d5", "214": "\u00d6", "215": "\u00d7", "216": "\u00d8", "217": "\u00d9", "218": "\u00da", "219": "\u00db", "220": "\u00dc", "221": "\u00dd", "222": "\u00de", "223": "\u00df", "224": "\u00e0", "225": "\u00e1", "226": "\u00e2", "227": "\u00e3", "228": "\u00e4", "229": "\u00e5", "230": "\u00e6", "231": "\u00e7", "232": "\u00e8", "233": "\u00e9", "234": "\u00ea", "235": "\u00eb", "236": "\u00ec", "237": "\u00ed", "238": "\u00ee", "239": "\u00ef", "240": "\u00f0", "241": "\u00f1", "242": "\u00f2", "243": "\u00f3", "244": "\u00f4", "245": "\u00f5", "246": "\u00f6", "247": "\u00f7", "248": "\u00f8", "249": "\u00f9", "250": "\u00fa", "251": "\u00fb", "252": "\u00fc", "253": "\u00fd", "254": "\u00fe", "255": "\u00ff", "256": "<|endoftext|>", "257": "\u0120t", "258": "he", "259": "\u0120a", "260": "\u0120s", "261": "\u0120w", "262": "\u0120the", "263": "nd", "264": "ed", "265": "\u0120b", "266": "\u0120to", "267": "\u0120and", "268": "\u0120h", "269": "\u0120f", "270": "\u0120T", "271": "in", "272": "\u0120wa", "273": "re", "274": "it", "275": "ou", "276": "\u0120l", "277": "\u0120d", "278": "\u0120c", "279": "\u0120p", "280": "ay", "281": "\u0120m", "282": "er", "283": "\u0120was", "284": "\u0120The", "285": "om", "286": "\u0120he", "287": "is", "288": "\u0120n", "289": "im", "290": "ar", "291": "on", "292": "\u0120sa", "293": "ll", "294": "id", "295": "\u0120ha", "296": "\u0120g", "297": "at", "298": "\u0120S", "299": "ing", "300": "ot", "301": "en", "302": "an", "303": "le", "304": "or", "305": "ir", "306": "am", "307": "et", "308": "\u0120H", "309": "\u0120it", "310": "\u0120th", "311": "ig", "312": "\u0120They", "313": "\u0120pl", "314": "\u0120in", "315": "il", "316": "\u0120He", "317": "\u0120\"", "318": "ow", "319": "ver", "320": "ri", "321": "\u0120u", "322": "ut", "323": "\u0120play", "324": "ith", "325": "\u0120said", "326": "\u0120be", "327": "\u0120day", "328": "\u0120with", "329": "pp", "330": "On", "331": "\u0120o", "332": "\u0120y", "333": "oo", "334": "ked", "335": "\u0120r", "336": "\u0120her", "337": "ce", "338": "ld", "339": "\u0120his", "340": "\u0120Tim", "341": "\u0120I", "342": "\u0120She", "343": "\u0120st", "344": "ke", "345": "\u0120e", "346": "\u0120big", "347": "nt", "348": "ck", "349": "very", "350": "\u0120you", "351": "st", "352": "ve", "353": "end", "354": "un", "355": "\u0120happ", "356": "\u0120on", "357": "all", "358": "riend", "359": "\u0120friend", "360": "\u0120they", "361": "\u0120L", "362": "ily", "363": "\u0120we", "364": "\u0120had", "365": "\u0120up", "366": "\u0120li", "367": "\u0120not", "368": "her", "369": "\u0120want", "370": "itt", "371": "\u0120of", "372": "ad", "373": "\u0120do", "374": "\u0120B", "375": "se", "376": "\u0120happy", "377": "ent", "378": "\u0120very", "379": "\u0120M", "380": "es", "381": "\u0120saw", "382": "One", "383": "\u0120that", "384": "ould", "385": "'s", "386": "\u0120for", "387": "ittle", "388": "\u0120mom", "389": "\u0120little", "390": "\u0120so", "391": "\u0120sh", "392": "\u0120she", "393": "ime", "394": "ch", "395": "\u0120nam", "396": "\u0120time", "397": "\u0120k", "398": "\u0120ne", "399": "ound", "400": ".\"", "401": "\u0120there", "402": "\u0120named", "403": "\u0120bo", "404": "\u0120sm", "405": "\u0120were", "406": "\u0120wanted", "407": "\u0120Lily", "408": "\u0120friends", "409": "out", "410": "ird", "411": "\u0120but", "412": "ved", "413": "ht", "414": "!\"", "415": "The", "416": "\u0120Tom", "417": "\u0120bird", "418": "el", "419": "ake", "420": "\u0120an", "421": "al", "422": "\u0120too", "423": "ome", "424": "\u0120went", "425": "\u0120wh", "426": "ide", "427": "Once", "428": "\u0120all", "429": "\u0120It", "430": "\u0120hel", "431": "ug", "432": "ue", "433": "\u0120help", "434": "\u0120is", "435": "\u0120loo", "436": "\u0120A", "437": "\u0120upon", "438": "\u0120lo", "439": "ter", "440": "ry", "441": "\u0120toy", "442": "ore", "443": "\u0120fun", "444": "ind", "445": "get", "446": "ill", "447": "ame", "448": "\u0120as", "449": "\u0120j", "450": "ra", "451": "\u0120at", "452": "gether", "453": "\u0120cat", "454": "\u0120did", "455": "\u0120re", "456": "ur", "457": "\u0120together", "458": "ack", "459": "\u0120se", "460": "ly", "461": "\u0120tre", "462": "ood", "463": "\u0120dog", "464": "ic", "465": "\u0120could", "466": "ted", "467": "\u0120can", "468": "\u0120ball", "469": "ard", "470": "\u0120gir", "471": "\u0120their", "472": "ark", "473": "\u0120girl", "474": "\u0120played", "475": "ec", "476": "my", "477": "\u0120him", "478": "\u0120go", "479": "way", "480": "\u0120ro", "481": "?\"", "482": "hed", "483": "ain", "484": "\u0120kn", "485": "\u0120le", "486": "\u0120out", "487": "hen", "488": "\u0120are", "489": "\u0120fr", "490": "um", "491": "'t", "492": "\u0120them", "493": "\u0120boy", "494": "\u0120sad", "495": "ul", "496": "ax", "497": "\u0120tree", "498": "other", "499": "oug", "500": "\u0120man", "501": "\u0120loved", "502": "\u0120have", "503": "\u0120cl", "504": "\u0120found", "505": "\u0120looked", "506": "\u0120sp", "507": "\u0120Sue", "508": "\u0120star", "509": "\u0120sc", "510": "one", "511": "\u0120back", "512": "own", "513": "hing", "514": "are", "515": "\u0120Max", "516": "\u0120like", "517": "\u0120bec", "518": "side", "519": "ful", "520": "\u0120me", "521": "op", "522": "ong", "523": "\u0120park", "524": "\u0120would", "525": "ight", "526": "\u0120liked", "527": "round", "528": "\u0120One", "529": "elt", "530": "\u0120fa", "531": "\u0120make", "532": "\u0120car", "533": "ell", "534": "\u0120But", "535": "\u0120felt", "536": "\u0120la", "537": "\u0120W", "538": "\u0120asked", "539": "\u0120Sam", "540": "You", "541": "ared", "542": "omet", "543": "ice", "544": "\u0120came", "545": "\u0120started", "546": "\u0120new", "547": "ag", "548": "\u0120see", "549": "\u0120no", "550": "ought", "551": "ouse", "552": "\u0120Ben", "553": "\u0120al", "554": "iled", "555": "\u0120ag", "556": "\u0120other", "557": "\u0120good", "558": "pot", "559": "\u0120somet", "560": "\u0120small", "561": "\u0120br", "562": "ob", "563": "ss", "564": "\u0120smiled", "565": "ade", "566": "ried", "567": "ings", "568": "\u0120say", "569": "\u0120find", "570": "\u0120wor", "571": "\u0120away", "572": "\u0120ex", "573": "\u0120from", "574": "\u0120thought", "575": "\u0120made", "576": "\u0120Spot", "577": "\u0120what", "578": "\u0120home", "579": "\u0120co", "580": "\u0120playing", "581": "ened", "582": "\u0120something", "583": "ty", "584": "\u0120put", "585": "\u0120every", "586": "\u0120wal", "587": "ach", "588": "\u0120mu", "589": "ia", "590": "uc", "591": "ook", "592": "ie", "593": "ny", "594": "\u0120F", "595": "\u0120again", "596": "\u0120ran", "597": "\u0120down", "598": "ile", "599": "dd", "600": "arn", "601": "\u0120toys", "602": "ave", "603": "\u0120pr", "604": "king", "605": "\u0120scared", "606": "\u0120some", "607": "\u0120took", "608": "\u0120laug", "609": "\u0120J", "610": "\u0120house", "611": "\u0120fl", "612": "if", "613": "ab", "614": "\u0120around", "615": "\u0120box", "616": "\u0120sw", "617": "ure", "618": "ick", "619": "\u0120learn", "620": "ep", "621": "ret", "622": "ish", "623": "oud", "624": "uck", "625": "\u0120your", "626": "\u0120lived", "627": "\u0120You", "628": "\u0120things", "629": "\u0120sun", "630": "\u0120then", "631": "\u0120will", "632": "ew", "633": "\u0120bl", "634": "\u0120my", "635": "as", "636": "\u0120when", "637": "\u0120ab", "638": "pped", "639": ",\"", "640": "us", "641": "\u0120get", "642": "ank", "643": "Tim", "644": "Th", "645": "\u0120ch", "646": "\u0120lot", "647": "ucy", "648": "oth", "649": "ap", "650": "ump", "651": "\u0120Mia", "652": "\u0120who", "653": "\u0120tried", "654": "ist", "655": "\u0120fe", "656": "\u0120know", "657": "\u0120got", "658": "ited", "659": "ust", "660": "\u0120many", "661": "\u0120about", "662": "\u0120says", "663": "\u0120int", "664": "ally", "665": "nder", "666": "\u0120red", "667": "\u0120knew", "668": "\u0120pret", "669": "ive", "670": "\u0120dec", "671": "Lily", "672": "ise", "673": "ous", "674": "\u0120any", "675": "au", "676": "\u0120D", "677": "ace", "678": "\u0120care", "679": "\u0120more", "680": "\u0120pic", "681": "qu", "682": "fter", "683": "\u0120best", "684": "ause", "685": "\u0120op", "686": "\u0120became", "687": "\u0120Lucy", "688": "\u0120po", "689": "\u0120water", "690": "ways", "691": "\u00e2\u0122", "692": "fe", "693": "\u0120hug", "694": "\u0120learned", "695": "\u0120Bob", "696": "\u0120exc", "697": "\u0120because", "698": "ite", "699": "\u0120always", "700": "\u0120look", "701": "\u0120outside", "702": "\u0120into", "703": "\u0120room", "704": "\u0120both", "705": "\u0120un", "706": "ided", "707": "\u0120So", "708": "\u0120show", "709": "\u0120laughed", "710": "\u0120eat", "711": "\u0120decided", "712": "\u0120And", "713": "\u0120gre", "714": "\u0120ho", "715": "urp", "716": "udd", "717": "ant", "718": "\u0120pe", "719": "ers", "720": "\u0120v", "721": "\u0120E", "722": "\u0120Mom", "723": "\u0120jump", "724": "nn", "725": "\u0120long", "726": "\u0120one", "727": "\u0120ke", "728": "\u0120this", "729": "\u0120run", "730": "\u0120nice", "731": "Yes", "732": "\u0120excited", "733": "\u0120fast", "734": "They", "735": "Tom", "736": "\u0120feel", "737": "\u0120dad", "738": "\u0120told", "739": "\u0120mo", "740": "\u0120sk", "741": "\u0120inside", "742": "our", "743": "\u0120am", "744": "\u0120tr", "745": "\u0120sl", "746": "ull", "747": "lew", "748": "\u0120sor", "749": "\u0120take", "750": "urpr", "751": "\u0120rock", "752": "iny", "753": "\u0120pretty", "754": "nna", "755": "\u0120surpr", "756": "\u0120gave", "757": "\u0120each", "758": "\u0120gra", "759": "imal", "760": "ink", "761": "\u0120animal", "762": "\u0120much", "763": "\u0120how", "764": "Wh", "765": "\u0120str", "766": "\u0120old", "767": "\u0120need", "768": "But", "769": "\u0120than", "770": "\u0120let", "771": "ven", "772": "ara", "773": "ro", "774": "ged", "775": "\u0120tow", "776": "ess", "777": "\u0120under", "778": "\u0120C", "779": "\u0120sorry", "780": "\u0120or", "781": "\u0120walked", "782": "\u0120cle", "783": "and", "784": "ft", "785": "\u0120ta", "786": "\u0120hand", "787": "ge", "788": "\u0120te", "789": "ised", "790": "og", "791": "\u0120fish", "792": "urn", "793": "urt", "794": "\u0120kind", "795": "ff", "796": "\u0120clo", "797": "\u0120His", "798": "\u0120wat", "799": "ving", "800": "\u0120hig", "801": "\u0120animals", "802": "ase", "803": "\u0120Amy", "804": "\u0120just", "805": "\u0120us", "806": "\u0120happened", "807": "ched", "808": "\u0120food", "809": "pl", "810": "\u0120sky", "811": "\u0120flow", "812": "here", "813": "\u0120sn", "814": "rom", "815": "\u0120try", "816": "\u0120list", "817": "\u0120ide", "818": "\u0120We", "819": "\u0120near", "820": "gry", "821": "\u0120didn", "822": "\u0120idea", "823": "\u0120bet", "824": "\u0120en", "825": "able", "826": "ate", "827": "ine", "828": "\u0120fi", "829": "\u0120flew", "830": "eci", "831": "\u0120its", "832": "ream", "833": "Thank", "834": "\u0120careful", "835": "\u0120share", "836": "\u0120cake", "837": "ex", "838": "\u0120heard", "839": "\u0120better", "840": "\u0120tw", "841": "\u0120stor", "842": "\u0120if", "843": "ecial", "844": "\u0120special", "845": "\u0120dan", "846": "pec", "847": "ber", "848": "ion", "849": "\u0120Th", "850": "\u0120bear", "851": "\u0120lots", "852": "\u0120wind", "853": "lf", "854": "more", "855": "\u0120anymore", "856": "udden", "857": "\u0120clean", "858": "\u0120never", "859": "\u0120fo", "860": "\u0120don", "861": "Mom", "862": "\u0120gr", "863": "\u0120bug", "864": "\u0120tal", "865": "ople", "866": "\u0120com", "867": "\u0120hard", "868": "\u0120bu", "869": "\u0120end", "870": "\u0120Then", "871": "\u0120by", "872": "\u0120fly", "873": "uddenly", "874": "\u0120mag", "875": "ort", "876": "\u0120turn", "877": "\u0120fore", "878": "\u0120over", "879": "\u0120Anna", "880": "\u0120Every", "881": "\u0120even", "882": "rm", "883": "\u010a\u010a", "884": "\u0120love", "885": "\u0120col", "886": "\u0120safe", "887": "\u0120people", "888": "\u0120after", "889": "\u0120bad", "890": "ady", "891": "\u0120high", "892": "\u0120fam", "893": "\u0120ground", "894": "ak", "895": "\u0120door", "896": "imb", "897": "\u0120come", "898": "bb", "899": "\u0120shiny", "900": "\u0120proud", "901": "As", "902": "\u0120opened", "903": "\u0120climb", "904": "uff", "905": "\u0120hurt", "906": "\u0120picked", "907": "\u0120blue", "908": "\u0120loud", "909": "pected", "910": "Let", "911": "\u0120che", "912": "\u0120give", "913": "\u0120way", "914": "\u0120surprised", "915": "\u0120gl", "916": "'m", "917": "expected", "918": "\u0120unexpected", "919": "ild", "920": "\u0120thanked", "921": "\u0120cu", "922": "\u0120book", "923": "ummy", "924": "\u0120When", "925": "\u0120From", "926": "\u0120call", "927": "\u0120color", "928": "\u0120Her", "929": "\u0120far", "930": "arden", "931": "\u0120garden", "932": "\u0120magic", "933": "\u0120ever", "934": "\u0120K", "935": "\u0120par", "936": "ough", "937": "kay", "938": "\u0120im", "939": "\u0120hugged", "940": "\u0120still", "941": "\u0120place", "942": "No", "943": "\u0120unt", "944": "ool", "945": "\u0120off", "946": "\u0120Sara", "947": "age", "948": "\u0120ma", "949": "\u0120smile", "950": "\u0120walk", "951": "ture", "952": "\u0120P", "953": "\u0120jumped", "954": "\u0120family", "955": "\u0120In", "956": "\u0120until", "957": "unny", "958": "iz", "959": "hes", "960": "\u0120pa", "961": "em", "962": "\u0120should", "963": "\u0120qu", "964": "\u0120now", "965": "ip", "966": "\u0120kid", "967": "ct", "968": "\u0120stick", "969": "itty", "970": "\u0120stay", "971": "\u0120strong", "972": "\u0120forest", "973": "\u0120sto", "974": "ane", "975": "\u0120dra", "976": "aut", "977": "\u0120app", "978": "uffy", "979": "dy", "980": "\u0120bro", "981": "\u0120boat", "982": "\u0120great", "983": "\u0120squ", "984": "\u0120bra", "985": "\u0120beaut", "986": "\u0120tra", "987": "xt", "988": "\u0120next", "989": "\u0120jo", "990": "\u0120helped", "991": "\u0120Sally", "992": "lease", "993": "\u0120hat", "994": "les", "995": "\u0120happily", "996": "\u0120picture", "997": "\u0120story", "998": "iful", "999": "ies", "1000": "\u0120beautiful", "1001": "\u0120listen", "1002": "ning", "1003": "th", "1004": "\u0120showed", "1005": "\u0120while", "1006": "\u0120called", "1007": "oon", "1008": "\u0120met", "1009": "\u0120clos", "1010": "Now", "1011": "\u0120kids", "1012": "pt", "1013": "\u0120open", "1014": "\u0120frog", "1015": "\u0120mor", "1016": "\u0120rem", "1017": "luffy", "1018": "\u0120town", "1019": "\u0120soft", "1020": "\u0120everyone", "1021": "Can", "1022": "It", "1023": "ger", "1024": "\u0120imp", "1025": "\u0120being", "1026": "He", "1027": "When", "1028": "\u0120stopped", "1029": "\u0120ad", "1030": "rel", "1031": "\u0120rain", "1032": "\u0120angry", "1033": "by", "1034": "\u0120yummy", "1035": "\u0120watch", "1036": "bit", "1037": "\u0120doll", "1038": "\u0120couldn", "1039": "\u0120ca", "1040": "abbit", "1041": "vent", "1042": "ary", "1043": "\u0120Let", "1044": "ree", "1045": "\u0120truck", "1046": "\u0120de", "1047": "ished", "1048": "\u0120Kitty", "1049": "\u0120mouse", "1050": "\u0120rabbit", "1051": "be", "1052": "dded", "1053": "\u0120ate", "1054": "ress", "1055": "iss", "1056": "\u0120wo", "1057": "\u0120Fluffy", "1058": "\u0120lost", "1059": "\u0120warm", "1060": "\u0120slide", "1061": "\u0120face", "1062": "\u0120brave", "1063": "\u0120game", "1064": "\u0120Wh", "1065": "\u0120keep", "1066": "\u0120fell", "1067": "fore", "1068": "\u0120leave", "1069": "\u0120flowers", "1070": "\u0120two", "1071": "\u0120cook", "1072": "owl", "1073": "\u0120bed", "1074": "\u0120cry", "1075": "\u0120pus", "1076": "illy", "1077": "so", "1078": "ock", "1079": "\u0120soon", "1080": "\u0120noise", "1081": "\u0120green", "1082": "\u0120also", "1083": "\u0120R", "1084": "That", "1085": "\u0120bunny", "1086": "ear", "1087": "\u0120nodded", "1088": "\u0120where", "1089": "gan", "1090": "self", "1091": "\u0120fix", "1092": "\u0120sat", "1093": "\u0120having", "1094": "ired", "1095": "Hi", "1096": "\u0120yell", "1097": "\u0120before", "1098": "\u00e2\u0122\u013f", "1099": "\u0120kept", "1100": "\u0120hole", "1101": "\u0120pain", "1102": "\u00e2\u0122\u013e", "1103": "\u0120hear", "1104": "ble", "1105": "day", "1106": "\u0120store", "1107": "What", "1108": "\u0120hands", "1109": "\u0120catch", "1110": "Look", "1111": "\u0120use", "1112": "irrel", "1113": "Then", "1114": "\u0120sing", "1115": "\u0120fin", "1116": "az", "1117": "irst", "1118": "\u0120used", "1119": "\u0120mommy", "1120": "\u0120thr", "1121": "\u0120expl", "1122": "\u0120funny", "1123": "\u0120squirrel", "1124": "\u0120birds", "1125": "Ben", "1126": "\u0120Now", "1127": "\u0120cra", "1128": "\u0120looking", "1129": "uch", "1130": "\u0120tired", "1131": "\u0120ey", "1132": "\u0120going", "1133": "\u0120wait", "1134": "\u0120bre", "1135": "\u0120kit", "1136": "oy", "1137": "eet", "1138": "aybe", "1139": "leep", "1140": "\u0120mean", "1141": "ange", "1142": "thing", "1143": "ught", "1144": "\u0120our", "1145": "led", "1146": "\u0120pull", "1147": "air", "1148": "\u0120dif", "1149": "\u0120fav", "1150": "\u0120sunny", "1151": "\u0120tri", "1152": "\u0120pond", "1153": "ember", "1154": "\u0120Can", "1155": "\u0120has", "1156": "chen", "1157": "\u0120kitchen", "1158": "\u0120wr", "1159": "\u0120party", "1160": "\u0120think", "1161": "\u0120ice", "1162": "\u0120flo", "1163": "orn", "1164": "oh", "1165": "\u0120work", "1166": "ting", "1167": "ac", "1168": "We", "1169": "\u0120head", "1170": "uit", "1171": "\u0120bus", "1172": "\u0120worked", "1173": "\u0120mess", "1174": "\u0120dr", "1175": "ng", "1176": "\u0120real", "1177": "\u0120Do", "1178": "zy", "1179": "ious", "1180": "ohn", "1181": "\u0120okay", "1182": "\u0120others", "1183": "\u0120sound", "1184": "llow", "1185": "\u0120moral", "1186": "\u0120beh", "1187": "\u0120eyes", "1188": "ath", "1189": "\u0120sand", "1190": "rew", "1191": "\u0120talk", "1192": "\u0120shared", "1193": "\u0120advent", "1194": "\u0120z", "1195": "\u0120remember", "1196": "\u0120\u00e2\u0122\u013e", "1197": "\u0120favor", "1198": "joy", "1199": "ma", "1200": "\u0120favorite", "1201": "ello", "1202": "Hello", "1203": "\u0120right", "1204": "\u0120ask", "1205": "\u0120curi", "1206": "\u0120cut", "1207": "\u0120cold", "1208": "\u0120ri", "1209": "\u0120hop", "1210": "\u0120con", "1211": "\u0120import", "1212": "\u0120hill", "1213": "\u0120mon", "1214": "lly", "1215": "\u0120dir", "1216": "imes", "1217": "\u0120making", "1218": "\u0120enjoy", "1219": "\u0120follow", "1220": "\u0120curious", "1221": "\u0120vo", "1222": "\u0120pie", "1223": "\u0120bright", "1224": "\u0120yard", "1225": "\u0120G", "1226": "At", "1227": "\u0120flower", "1228": "ken", "1229": "Don", "1230": "\u0120sweet", "1231": "reed", "1232": "\u0120move", "1233": "\u0120duck", "1234": "\u0120dis", "1235": "\u0120rest", "1236": "\u0120own", "1237": "\u0120draw", "1238": "\u0120first", "1239": "\u0120important", "1240": "\u0120top", "1241": "\u0120Jack", "1242": "\u0120sho", "1243": "\u0120cla", "1244": "\u0120began", "1245": "\u0120tall", "1246": "\u0120pick", "1247": "\u0120block", "1248": "\u0120watched", "1249": "ount", "1250": "\u0120sleep", "1251": "\u0120bel", "1252": "\u0120lady", "1253": "After", "1254": "\u0120night", "1255": "\u0120thing", "1256": "Wow", "1257": "ied", "1258": "\u0120race", "1259": "ster", "1260": "\u0120tail", "1261": "\u0120hot", "1262": "fere", "1263": "\u0120hid", "1264": "\u0120hun", "1265": "\u0120differe", "1266": "\u0120agreed", "1267": "\u0120floor", "1268": "\u0120shout", "1269": "\u0120here", "1270": "\u0120stop", "1271": "ect", "1272": "\u0120forg", "1273": "\u0120dark", "1274": "\u0120This", "1275": "\u0120bag", "1276": "\u0120grass", "1277": "ign", "1278": "\u0120worry", "1279": "\u0120song", "1280": "\u0120table", "1281": "\u0120tast", "1282": "\u0120tell", "1283": "que", "1284": "\u0120prin", "1285": "\u0120needed", "1286": "\u0120leaves", "1287": "aring", "1288": "\u0120voice", "1289": "\u0120yellow", "1290": "\u0120read", "1291": "aper", "1292": "\u0120farm", "1293": "\u0120Fin", "1294": "\u0120ru", "1295": "\u0120trees", "1296": "\u0120dress", "1297": "\u0120hair", "1298": "\u0120swing", "1299": "Why", "1300": "\u0120different", "1301": "\u0120del", "1302": "\u0120adventure", "1303": "\u0120walking", "1304": "\u0120turned", "1305": "\u0120surprise", "1306": "\u0120please", "1307": "\u00e2\u0122\u013b", "1308": "\u0120Mr", "1309": "\u0120hungry", "1310": "Max", "1311": "\u0120does", "1312": "\u0120cars", "1313": "\u0120Suddenly", "1314": "\u0120colors", "1315": "\u0120Dad", "1316": "oom", "1317": "Suddenly", "1318": "\u0120laugh", "1319": "bo", "1320": "Sue", "1321": "\u0120closer", "1322": "ached", "1323": "Sam", "1324": "\u0120pretend", "1325": "co", "1326": "\u0120lion", "1327": "ient", "1328": "ered", "1329": "ila", "1330": "\u0120broken", "1331": "\u0120wood", "1332": "\u0120prom", "1333": "\u0120cried", "1334": "bye", "1335": "\u0120wet", "1336": "\u0120piece", "1337": "\u0120friendly", "1338": "\u0120Timmy", "1339": "\u0120full", "1340": "\u0120behind", "1341": "\u0120train", "1342": "isy", "1343": "\u0120dance", "1344": "Anna", "1345": "ppy", "1346": "\u0120touch", "1347": "\u0120climbed", "1348": "\u0120another", "1349": "\u0120danc", "1350": "af", "1351": "So", "1352": "\u0120gone", "1353": "where", "1354": "\u0120apple", "1355": "\u0120smell", "1356": "bbed", "1357": "\u0120swim", "1358": "\u0120ste", "1359": "cked", "1360": "\u0120blocks", "1361": "ater", "1362": "\u0120feeling", "1363": "sh", "1364": "\u0120paper", "1365": "\u0120That", "1366": "She", "1367": "\u0120amaz", "1368": "\u0120As", "1369": "\u0120ant", "1370": "\u0120per", "1371": "\u0120butter", "1372": "\u0120running", "1373": "\u0120Jane", "1374": "\u0120reached", "1375": "\u0120helping", "1376": "\u0120listened", "1377": "\u0120fair", "1378": "iced", "1379": "\u0120goodbye", "1380": "\u0120ready", "1381": "av", "1382": "\u0120only", "1383": "\u0120hold", "1384": "\u0120light", "1385": "\u0120ac", "1386": "ray", "1387": "aby", "1388": "ike", "1389": "\u0120O", "1390": "\u0120roll", "1391": "Sara", "1392": "\u0120cream", "1393": "\u0120Bobo", "1394": "\u0120repl", "1395": "\u0120dri", "1396": "key", "1397": "\u0120sit", "1398": "\u0120pushed", "1399": "\u0120fight", "1400": "\u0120slow", "1401": "\u0120plan", "1402": "\u0120close", "1403": "red", "1404": "\u0120All", "1405": "\u0120less", "1406": "\u0120done", "1407": "pe", "1408": "\u0120wag", "1409": "\u0120wall", "1410": "\u0120owl", "1411": "\u0120cool", "1412": "\u0120sees", "1413": "\u0120must", "1414": "\u0120glad", "1415": "\u0120fruit", "1416": "\u0120wise", "1417": "ield", "1418": "\u0120tiny", "1419": "\u0120wonder", "1420": "\u0120moment", "1421": "\u0120trying", "1422": "\u0120stuck", "1423": "ather", "1424": "\u0120dream", "1425": "In", "1426": "\u0120through", "1427": "\u0120din", "1428": "ash", "1429": "\u0120wished", "1430": "\u0120pen", "1431": "\u0120fire", "1432": "ames", "1433": "\u0120reach", "1434": "\u0120thank", "1435": "\u0120bar", "1436": "\u0120been", "1437": "\u0120baby", "1438": "\u0120window", "1439": "\u0120join", "1440": "\u0120explore", "1441": "ott", "1442": "\u0120looks", "1443": "\u0120doing", "1444": "\u0120Everyone", "1445": "\u0120ar", "1446": "\u0120buy", "1447": "\u0120bit", "1448": "\u0120shouted", "1449": "\u0120air", "1450": "Mia", "1451": "\u0120hide", "1452": "\u0120build", "1453": "\u0120Mommy", "1454": "\u0120nest", "1455": "\u0120swam", "1456": "\u0120scary", "1457": "\u0120fall", "1458": "\u0120coming", "1459": "\u0120cloud", "1460": "\u0120land", "1461": "\u0120bran", "1462": "oney", "1463": "\u0120win", "1464": "\u0120blew", "1465": "\u0120seen", "1466": "andy", "1467": "\u0120perf", "1468": "ask", "1469": "\u0120dirty", "1470": "\u0120child", "1471": "\u0120held", "1472": "\u0120books", "1473": "avy", "1474": "ph", "1475": "\u0120bigger", "1476": "\u0120replied", "1477": "\u0120quick", "1478": "\u0120left", "1479": "\u0120mat", "1480": "ely", "1481": "\u0120underst", "1482": "\u0120might", "1483": "\u0120treat", "1484": "ndma", "1485": "\u0120colorful", "1486": "\u0120pulled", "1487": "\u0120grabbed", "1488": "\u0120why", "1489": "\u0120turns", "1490": "Okay", "1491": "\u0120dro", "1492": "\u0120butterf", "1493": "ized", "1494": "\u0120remembered", "1495": "icy", "1496": "\u0120fill", "1497": "\u0120name", "1498": "ucky", "1499": "\u0120cup", "1500": "\u0120chair", "1501": "\u0120cast", "1502": "\u0120broke", "1503": "orm", "1504": "\u0120sometimes", "1505": "\u0120count", "1506": "aisy", "1507": "\u0120three", "1508": "\u0120sure", "1509": "oup", "1510": "ation", "1511": "\u0120spl", "1512": "\u0120hopped", "1513": "\u0120pink", "1514": "ton", "1515": "\u0120stayed", "1516": "\u0120snow", "1517": "\u0120job", "1518": "\u0120clapped", "1519": "up", "1520": "Oh", "1521": "\u0120games", "1522": "der", "1523": "\u0120bott", "1524": "\u0120gif", "1525": "ee", "1526": "\u0120waited", "1527": "'re", "1528": "\u0120There", "1529": "\u0120plant", "1530": "\u0120noticed", "1531": "\u0120grow", "1532": "\u0120lesson", "1533": "\u0120balloon", "1534": "ix", "1535": "\u0120anything", "1536": "\u0120pictures", "1537": "\u0120woods", "1538": "outh", "1539": "\u0120mouth", "1540": "\u0120paint", "1541": "\u0120After", "1542": "uddy", "1543": "\u0120waved", "1544": "\u0120set", "1545": "ower", "1546": "\u0120enjoyed", "1547": "room", "1548": "\u0120spot", "1549": "\u0120alone", "1550": "\u0120pot", "1551": "\u0120cont", "1552": "This", "1553": "\u0120sea", "1554": "\u0120brother", "1555": "ds", "1556": "\u0120likes", "1557": "art", "1558": "oun", "1559": "amp", "1560": "Her", "1561": "\u0120tight", "1562": "\".", "1563": "\u0120year", "1564": "\u0120threw", "1565": "\u0120heavy", "1566": "\u0120white", "1567": "\u0120followed", "1568": "\u0120quickly", "1569": "\u0120gent", "1570": "\u0120butterfly", "1571": "ins", "1572": "Spot", "1573": "\u0120miss", "1574": "\u0120cookies", "1575": "ape", "1576": "\u0120ju", "1577": "\u0120deep", "1578": "asure", "1579": "olly", "1580": "\u0120everywhere", "1581": "de", "1582": "Lucy", "1583": "ze", "1584": "\u0120bee", "1585": "\u0120pat", "1586": "oe", "1587": "\u0120John", "1588": "ries", "1589": "aught", "1590": "\u0120mar", "1591": "Bob", "1592": "\u0120world", "1593": "ister", "1594": "cle", "1595": "\u0120clot", "1596": "\u0120wrong", "1597": "\u0120clothes", "1598": "\u0120castle", "1599": "\u0120cre", "1600": "\u0120wear", "1601": "less", "1602": "lc", "1603": "\u0120pu", "1604": "ross", "1605": "\u0120mum", "1606": "\u0120button", "1607": "\u0120leaf", "1608": "iet", "1609": "\u0120nap", "1610": "\u0120Buddy", "1611": "\u0120ve", "1612": "ner", "1613": "\u0120quiet", "1614": "\u0120mix", "1615": "\u0120key", "1616": "arent", "1617": "\u0120makes", "1618": "ang", "1619": "\u0120brought", "1620": "\u0120round", "1621": "row", "1622": "\u0120parent", "1623": "ully", "1624": "ued", "1625": "rot", "1626": "\u0120wants", "1627": "\u0120well", "1628": "\u0120himself", "1629": "\u0120Daisy", "1630": "os", "1631": "\u0120won", "1632": "\u0120ride", "1633": "\u0120delic", "1634": "\u0120field", "1635": "man", "1636": "\u0120danced", "1637": "\u0120break", "1638": "\u0120arm", "1639": "\u0120tower", "1640": "\u0120Lila", "1641": "Do", "1642": "\u0120sign", "1643": "\u0120What", "1644": "fully", "1645": "\u0120snack", "1646": "\u0120hit", "1647": "thy", "1648": "\u0120drag", "1649": "\u0120faster", "1650": "\u0120king", "1651": "\u0120gift", "1652": "\u0120talked", "1653": "\u0120forgot", "1654": "\u0120wish", "1655": "\u0120leg", "1656": "\u0120beach", "1657": "gg", "1658": "\u0120sister", "1659": "\u0120river", "1660": "\u0120mus", "1661": "cess", "1662": "ence", "1663": "\u0120finished", "1664": "\u0120branch", "1665": "\u0120dry", "1666": "\u0120comp", "1667": "leph", "1668": "ves", "1669": "itten", "1670": "cy", "1671": "\u0120sharing", "1672": "From", "1673": "\u0120pol", "1674": "\u0120bike", "1675": "\u0120Inside", "1676": "\u0120dinner", "1677": "\u0120dragon", "1678": "\u0120fur", "1679": "ards", "1680": "\u0120ra", "1681": "\u0120danger", "1682": "\u0120rel", "1683": "\u0120em", "1684": "\u0120really", "1685": "\u0120bor", "1686": "ipp", "1687": "\u0120vis", "1688": "\u0120understand", "1689": "\u0120shin", "1690": "ance", "1691": "\u0120To", "1692": "\u0120black", "1693": "John", "1694": "ren", "1695": "\u0120bottle", "1696": "\u0120monkey", "1697": "\u0120fox", "1698": "His", "1699": "eddy", "1700": "\u0120monster", "1701": "\u0120pig", "1702": "\u0120smart", "1703": "\u0120At", "1704": "\u0120poin", "1705": "\u0120worried", "1706": "\u0120rocks", "1707": "\u0120contin", "1708": "Amy", "1709": "\u0120gu", "1710": "\u0120carefully", "1711": "\u0120bowl", "1712": "\u0120someone", "1713": "imi", "1714": "ctor", "1715": "\u0120fairy", "1716": "\u0120today", "1717": "\u0120att", "1718": "ast", "1719": "\u0120filled", "1720": "\u0120side", "1721": "\u0120pudd", "1722": "\u0120eating", "1723": "ush", "1724": "\u0120welc", "1725": "\u0120el", "1726": "ses", "1727": "vel", "1728": "\u0120gi", "1729": "\u0120cow", "1730": "\u0120boun", "1731": "itting", "1732": "\u0120snake", "1733": "\u0120brown", "1734": "ead", "1735": "\u0120whe", "1736": "\u0120promised", "1737": "\u0120fan", "1738": "While", "1739": "\u0120silly", "1740": "\u0120pet", "1741": "\u0120happen", "1742": "Just", "1743": "\u0120everything", "1744": "\u0120yes", "1745": "ts", "1746": "\u0120res", "1747": "\u0120parents", "1748": "\u0120Soon", "1749": "\u0120Maybe", "1750": "\u0120soup", "1751": "\u0120visit", "1752": "\u0120music", "1753": "\u0120mud", "1754": "\u0120letter", "1755": "ated", "1756": "\u0120free", "1757": "\u0120else", "1758": "\u0120pieces", "1759": "\u0120road", "1760": "\u0120children", "1761": "stead", "1762": "\u0120bite", "1763": "\u0120shop", "1764": "\u0120sang", "1765": "\u0120continued", "1766": "Fin", "1767": "\u0120talking", "1768": "\u0120perfect", "1769": "\u0120kite", "1770": "zz", "1771": "\u0120flying", "1772": "\u0120egg", "1773": "\u0120smiles", "1774": "\u0120throw", "1775": "\u0120realized", "1776": "\u0120Billy", "1777": "\u0120mail", "1778": "\u0120ear", "1779": "\u0120Sarah", "1780": "ord", "1781": "\u0120words", "1782": "\u0120Em", "1783": ".\u00e2\u0122\u013f", "1784": "\u0120amazing", "1785": "cket", "1786": "\u0120laughing", "1787": "\u0120jar", "1788": "\u0120wagged", "1789": "\u0120orange", "1790": "\u0120que", "1791": "\u0120sec", "1792": "\u0120moved", "1793": "\u0120sitting", "1794": "\u0120enough", "1795": "\u0120closed", "1796": "\u0120Z", "1797": "\u0120pass", "1798": "\u0120without", "1799": "\u0120shining", "1800": "\u0120mother", "1801": "gly", "1802": "\u0120smo", "1803": "\u0120stand", "1804": "\u0120crab", "1805": "\u0120buck", "1806": "\u0120sail", "1807": "\u0120rope", "1808": "\u0120dangerous", "1809": "fort", "1810": "\u0120strange", "1811": "\u0120secret", "1812": "\u0120barked", "1813": "\u0120bath", "1814": "\u0120stu", "1815": "\u0120tasty", "1816": "\u0120drink", "1817": "\u0120Mimi", "1818": "unch", "1819": "\u0120welcome", "1820": "fish", "1821": "ella", "1822": "\u0120paw", "1823": "used", "1824": "iver", "1825": "board", "1826": "\u0120crying", "1827": "\u0120whist", "1828": "\u0120past", "1829": "\u0120heal", "1830": "\u0120ce", "1831": "ises", "1832": "\u0120lon", "1833": "\u0120candy", "1834": "\u0120living", "1835": "\u0120Joe", "1836": "\u0120-", "1837": "\u0120higher", "1838": "ches", "1839": "Maybe", "1840": "\u0120lonely", "1841": "\u0120pre", "1842": "\u0120owner", "1843": "\u0120Ch", "1844": "\u0120shoes", "1845": "\u0120belie", "1846": "\u0120sack", "1847": "\u0120farmer", "1848": "Please", "1849": "\u0120morning", "1850": "chool", "1851": "ato", "1852": "arm", "1853": "\u0120tom", "1854": "\u0120Jen", "1855": "gy", "1856": "\u0120swings", "1857": "\u0120delicious", "1858": "\u0120purp", "1859": "ract", "1860": "\u0120school", "1861": "llie", "1862": "isk", "1863": "\u0120scream", "1864": "\u0120teac", "1865": "ible", "1866": "\u0120push", "1867": "\u0120finally", "1868": "!\u00e2\u0122\u013f", "1869": "\u0120stone", "1870": "\u0120rolled", "1871": "\u0120ph", "1872": "\u0120grandma", "1873": "lephant", "1874": "lder", "1875": "Mommy", "1876": "\u0120puddle", "1877": "ich", "1878": "\u0120stre", "1879": "\u0120dolls", "1880": "me", "1881": "\u0120Bl", "1882": "\u0120getting", "1883": "\u0120blank", "1884": "ire", "1885": "ama", "1886": "\u0120purple", "1887": "\u0120lake", "1888": "\u0120asks", "1889": "lla", "1890": "asket", "1891": "\u0120years", "1892": "\u0120trou", "1893": "\u0120shell", "1894": "\u0120mad", "1895": "ased", "1896": "\u0120caught", "1897": "\u0120blanket", "1898": "\u0120corn", "1899": "set", "1900": "\u0120treasure", "1901": "\u0120wore", "1902": "\u0120runs", "1903": "\u0120money", "1904": "ub", "1905": "\u0120basket", "1906": "\u0120hoped", "1907": "ons", "1908": "\u0120pile", "1909": "iskers", "1910": "\u0120same", "1911": "eo", "1912": "\u0120singing", "1913": "app", "1914": "\u0120herself", "1915": "ey", "1916": "\u0120wings", "1917": "\u0120pers", "1918": "\u0120apples", "1919": "cks", "1920": "\u0120cute", "1921": "\u0120ben", "1922": "br", "1923": "\u0120mine", "1924": "\u0120je", "1925": "\u0120bat", "1926": "\u0120Tommy", "1927": "igh", "1928": "\u0120plane", "1929": "\u0120gentle", "1930": "\u0120carrot", "1931": "\u0120cray", "1932": "\u010a\u0120", "1933": "\u0120teacher", "1934": "\u0120elephant", "1935": "\u0120coat", "1936": "\u0120sear", "1937": "\u0120pill", "1938": "\u0120dropped", "1939": "\u0120balls", "1940": "\u0120start", "1941": "\u0120fit", "1942": "\u0120teddy", "1943": "\u0120days", "1944": "thday", "1945": "irthday", "1946": "\u0120cour", "1947": "\u0120doctor", "1948": "Finally", "1949": "ined", "1950": "\u0120war", "1951": "\u0120course", "1952": "\u0120forever", "1953": "aughty", "1954": "\u0120woke", "1955": "\u0120joy", "1956": "\u0120naughty", "1957": "\u0120hiding", "1958": "\u0120seed", "1959": "\u0120card", "1960": "\u0120promise", "1961": "\u0120min", "1962": "\u0120bring", "1963": "ilk", "1964": "\u0120Whiskers", "1965": "\u0120most", "1966": "\u0120arri", "1967": "\u0120teach", "1968": "\u0120spin", "1969": "\u0120cookie", "1970": "\u0120cr", "1971": "\u0120band", "1972": "umpy", "1973": "ol", "1974": "ator", "1975": "\u0120shap", "1976": "\u0120fence", "1977": "\u0120chee", "1978": "\u0120rob", "1979": "\u0120bush", "1980": "\u0120Gra", "1981": "\u0120Blue", "1982": "\u0120thinks", "1983": "\u0120shr", "1984": "\u0120milk", "1985": "\u0120lunch", "1986": "\u0120ugly", "1987": "\u0120eas", "1988": "\u0120birthday", "1989": "arp", "1990": "\u0120nose", "1991": "\u0120touc", "1992": "ose", "1993": "\u0120juice", "1994": "\u0120Thank", "1995": "\u0120vill", "1996": "\u0120ob", "1997": "\u0120grew", "1998": "\u0120bow", "1999": "\u0120pop", "2000": "\u0120belong", "2001": "sw", "2002": "\u0120shapes", "2003": "\u0120answ", "2004": "fused", "2005": "itch", "2006": "ipped", "2007": "\u0120sharp", "2008": "\u0120Fred", "2009": "ass", "2010": "ail", "2011": "\u0120creat", "2012": "\u0120young", "2013": "\u0120heart", "2014": "umber", "2015": "sy", "2016": "irt", "2017": "\u0120bench", "2018": "ier", "2019": "\u0120street", "2020": "\u0120Bella", "2021": "bow", "2022": "'ll", "2023": "\u0120Leo", "2024": "\u0120seem", "2025": "Jack", "2026": "\u0120bone", "2027": "erry", "2028": "\u0120wra", "2029": "\u0120mark", "2030": "\u0120late", "2031": "\u0120able", "2032": "sc", "2033": "eter", "2034": "ball", "2035": "ale", "2036": "\u0120believe", "2037": "\u0120rocket", "2038": "\u0120zoom", "2039": "\u0120bucket", "2040": "\u0120coin", "2041": "\u0120bread", "2042": "\u0120robot", "2043": "\u0120pocket", "2044": "\u0120power", "2045": "\u0120magical", "2046": "\u0120dirt", "2047": "\u0120touched", "2048": "\u0120spoon", "2049": "\u0120shy", "2050": "\u0120kiss", "2051": "\u0120inc", "2052": "\u0120slowly", "2053": "\u0120shook", "2054": "\u0120busy", "2055": "\u0120twins", "2056": "\u0120kitten", "2057": "\u0120prob", "2058": "\u0120cheered", "2059": "\u0120arrived", "2060": "\u0120shake", "2061": "\u0120feels", "2062": "\u0120lem", "2063": "\u0120craw", "2064": "\u0120seat", "2065": "\u0120neck", "2066": "\u0120carry", "2067": "\u0120trip", "2068": "\u0120storm", "2069": "ling", "2070": "\u0120amazed", "2071": "ung", "2072": "\u0120spo", "2073": "\u0120few", "2074": "eared", "2075": "\u0120village", "2076": "igg", "2077": "OK", "2078": "\u0120bell", "2079": "lem", "2080": "idge", "2081": "\u0120taking", "2082": "\u0120stories", "2083": "\u0120patient", "2084": "\u0120grumpy", "2085": "\u0120fixed", "2086": "\u0120coll", "2087": "oose", "2088": "\u0120problem", "2089": "\u0120nut", "2090": "urtle", "2091": "ost", "2092": "\u0120wheel", "2093": "Good", "2094": "\u0120sounds", "2095": "\u0120wonderful", "2096": "\u0120live", "2097": "\u0120gray", "2098": "\u0120dist", "2099": "irp", "2100": "\u0120rainbow", "2101": "una", "2102": "\u0120wave", "2103": "\u0120towards", "2104": "\u0120sug", "2105": "\u0120huge", "2106": "\u0120spark", "2107": "\u0120rude", "2108": "\u0120driver", "2109": "\u0120hor", "2110": "\u0120cover", "2111": "ors", "2112": "fortable", "2113": "\u0120whistle", "2114": "\u0120songs", "2115": "\u0120cart", "2116": "\u0120Mark", "2117": "\u0120cir", "2118": "emy", "2119": "\u0120wide", "2120": "\u0120Momo", "2121": "\u0120sal", "2122": "epend", "2123": "Lila", "2124": "\u0120rec", "2125": "\u0120des", "2126": "unt", "2127": "ens", "2128": "\u0120string", "2129": "\u0120disapp", "2130": "kin", "2131": "elly", "2132": "bble", "2133": "\u0120treats", "2134": "\u0120suc", "2135": "pping", "2136": "\u0120path", "2137": "\u0120meet", "2138": "iling", "2139": "\u0120upset", "2140": "\u0120holding", "2141": "\u0120cheese", "2142": "alm", "2143": "\u0120moon", "2144": "oph", "2145": "Be", "2146": "\u0120turtle", "2147": "\u0120worm", "2148": "\u0120wild", "2149": "Of", "2150": "ourn", "2151": "Sure", "2152": "\u0120lay", "2153": "\u0120hugs", "2154": "\u0120N", "2155": "\u0120grab", "2156": "\u0120fighting", "2157": "\u0120life", "2158": "\u0120giant", "2159": "\u0120di", "2160": "\u0120puppy", "2161": "\u0120peace", "2162": "\u0120journ", "2163": "\u0120bugs", "2164": "umb", "2165": "ring", "2166": "\u0120smooth", "2167": "\u0120jew", "2168": "adow", "2169": "\u0120note", "2170": "\u0120joke", "2171": "\u0120ban", "2172": "\u0120noises", "2173": "\u0120jewel", "2174": "\u0120cloth", "2175": "\u0120Just", "2176": "\u0120Emma", "2177": "\u0120smelly", "2178": "\u0120sour", "2179": "\u0120mist", "2180": "\u0120honey", "2181": "ountain", "2182": "\u0120lucky", "2183": "\u0120inv", "2184": "\u0120ser", "2185": "\u0120landed", "2186": "\u0120cou", "2187": "ular", "2188": "izzy", "2189": "onest", "2190": "\u0120On", "2191": "pper", "2192": "\u0120net", "2193": "St", "2194": "\u0120thin", "2195": "\u0120rad", "2196": "\u0120cave", "2197": "aur", "2198": "\u0120princess", "2199": "\u0120honest", "2200": "\u0120beak", "2201": "\u0120Ann", "2202": "not", "2203": "ife", "2204": "\u0120jelly", "2205": "\u0120drive", "2206": "\u0120boss", "2207": "isa", "2208": "\u0120part", "2209": "\u0120chew", "2210": "\u0120banan", "2211": "ery", "2212": "\u0120seek", "2213": "\u0120cannot", "2214": "\u0120missed", "2215": "\u0120act", "2216": "\u0120Molly", "2217": "\u0120stars", "2218": "\u0120med", "2219": "\u0120ba", "2220": "ove", "2221": "\u0120dogs", "2222": "read", "2223": "\u0120suddenly", "2224": "\u0120sick", "2225": "\u0120ign", "2226": "sp", "2227": "\u0120oven", "2228": "\u0120drove", "2229": "lower", "2230": "\u0120bri", "2231": "\u0120tea", "2232": "\u0120step", "2233": "\u0120splas", "2234": "\u0120Finally", "2235": "\u0120shelf", "2236": "iger", "2237": "\u0120exp", "2238": "\u0120snowman", "2239": "\u0120wasn", "2240": "\u0120instead", "2241": "Hey", "2242": "\u0120taste", "2243": "\u0120foot", "2244": "\u0120fle", "2245": "\u0120Dog", "2246": "\u0120maybe", "2247": "\u0120ducks", "2248": "ope", "2249": "ert", "2250": "Later", "2251": "\u0120sel", "2252": "\u0120across", "2253": "ateful", "2254": "\u0120sandw", "2255": "\u0120helpful", "2256": "\u0120fancy", "2257": "\u0120adventures", "2258": "est", "2259": "\u0120bought", "2260": "\u0120wash", "2261": "\u0120organ", "2262": "ian", "2263": "ere", "2264": "\u0120cross", "2265": "To", "2266": "\u0120line", "2267": "\u0120glow", "2268": "\u0120Remy", "2269": "\u0120grateful", "2270": "\u0120comes", "2271": "\u0120slid", "2272": "\u0120forget", "2273": "\u0120confused", "2274": "\u0120ash", "2275": "let", "2276": "idy", "2277": "\u0120spe", "2278": "\u0120puzz", "2279": "\u0120pillow", "2280": "\u0120healthy", "2281": "\u0120change", "2282": "\u0120pract", "2283": "\u0120dish", "2284": "\u0120zoo", "2285": "\u0120Ollie", "2286": "oomy", "2287": "oppy", "2288": "\u0120val", "2289": "\u0120stepped", "2290": "erest", "2291": "\u0120last", "2292": "\u0120lad", "2293": "\u0120interest", "2294": "\u0120cap", "2295": "\u0120selfish", "2296": "\u0120elder", "2297": "\u0120cho", "2298": "ity", "2299": "\u0120working", "2300": "\u0120whole", "2301": "\u0120elderly", "2302": "\u0120easy", "2303": "ward", "2304": "\u0120watching", "2305": "\u0120sticks", "2306": "\u0120hope", "2307": "\u0120anyone", "2308": "col", "2309": "\u0120messy", "2310": "\u0120calm", "2311": "amed", "2312": "\u0120takes", "2313": "\u0120save", "2314": "\u0120pri", "2315": "\u0120forgive", "2316": "\u0120daddy", "2317": "\u0120chased", "2318": "ize", "2319": "irpy", "2320": "\u0120weak", "2321": "\u0120team", "2322": "\u0120myster", "2323": "\u0120av", "2324": "\u0120write", "2325": "\u0120shirt", "2326": "\u0120ladder", "2327": "oc", "2328": "\u0120wolf", "2329": "\u0120tape", "2330": "to", "2331": "pect", "2332": "\u0120splash", "2333": "\u0120lemon", "2334": "\u0120legs", "2335": "\u0120clever", "2336": "\u0120Sp", "2337": "\u0120phone", "2338": "\u0120mind", "2339": "\u0120horse", "2340": "\u0120feather", "2341": "\u0120plants", "2342": "\u0120person", "2343": "\u0120longer", "2344": "ider", "2345": "\u0120tidy", "2346": "\u0120stret", "2347": "\u0120prot", "2348": "\u0120pour", "2349": "\u0120jog", "2350": "ork", "2351": "ever", "2352": "\u0120emp", "2353": "izz", "2354": "Soon", "2355": "\u0120pan", "2356": "\u0120later", "2357": "\u0120empty", "2358": "\u0120bark", "2359": "\u0120along", "2360": "\u0120Cat", "2361": "Sally", "2362": "\u0120seemed", "2363": "\u0120faces", "2364": "\u0120boot", "2365": "\u0120Bu", "2366": "\u0120pretended", "2367": "\u0120lock", "2368": "\u0120cozy", "2369": "bbles", "2370": "\u0120sleepy", "2371": "\u0120lift", "2372": "ions", "2373": "\u0120hum", "2374": "iting", "2375": "\u0120waiting", "2376": "\u0120stir", "2377": "\u0120saved", "2378": "\u0120su", "2379": "\u0120finish", "2380": "llo", "2381": "\u0120swimm", "2382": "\u0120mach", "2383": "pill", "2384": "pillar", "2385": "Come", "2386": "\u0120ret", "2387": "ually", "2388": "ained", "2389": "?\u00e2\u0122\u013f", "2390": "\u0120spicy", "2391": "\u0120cheer", "2392": "\u0120chick", "2393": "\u0120bounce", "2394": "\u0120Come", "2395": "\u0120screamed", "2396": "\u0120return", "2397": "\u0120ring", "2398": "\u0120goat", "2399": "\u0120Lisa", "2400": "\u0120ent", "2401": "ult", "2402": "\u0120pool", "2403": "\u0120fake", "2404": "\u0120Chirpy", "2405": "den", "2406": "\u0120jumping", "2407": "\u0120Daddy", "2408": "\u0120supp", "2409": "\u0120such", "2410": "\u0120interesting", "2411": "\u0120wondered", "2412": "\u0120tie", "2413": "\u0120clouds", "2414": "\u0120print", "2415": "\u0120pin", "2416": "\u0120mistake", "2417": "\u0120fruits", "2418": "\u0120Ducky", "2419": "unk", "2420": "\u0120drank", "2421": "ocked", "2422": "\u0120spray", "2423": "erpillar", "2424": "\u0120though", "2425": "\u0120plate", "2426": "\u0120eag", "2427": "\u0120caterpillar", "2428": "\u0120stra", "2429": "\u0120bossy", "2430": "\u0120Together", "2431": "issors", "2432": "dge", "2433": "box", "2434": "\u0120onto", "2435": "\u0120gather", "2436": "eth", "2437": "\u0120kick", "2438": "\u0120drew", "2439": "\u0120building", "2440": "\u0120Benny", "2441": "\u0120swimming", "2442": "\u0120scissors", "2443": "\u0120machine", "2444": "lebr", "2445": "\u0120rich", "2446": "\u0120With", "2447": "\u0120TV", "2448": "ormal", "2449": "\u0120sheep", "2450": "\u0120number", "2451": "\u0120hidden", "2452": "\u0120gives", "2453": "\u0120celebr", "2454": "\u0120St", "2455": "\u0120Ella", "2456": "ont", "2457": "\u0120normal", "2458": "oof", "2459": "ek", "2460": "\u0120wing", "2461": "\u0120brush", "2462": "Kitty", "2463": "\u0120lovely", "2464": "\u0120furry", "2465": "\u0120explor", "2466": "\u0120crayons", "2467": "\u0120cleaned", "2468": "\u0120arms", "2469": "\u0120trouble", "2470": "\u0120glue", "2471": "\u0120front", "2472": "ment", "2473": "izza", "2474": "aced", "2475": "\u0120spider", "2476": "\u0120penc", "2477": "\u0120pack", "2478": "\u0120fing", "2479": "\u0120cher", "2480": "\u0120My", "2481": "\u0120sugar", "2482": "\u0120pointed", "2483": "\u0120pencil", "2484": "\u0120match", "2485": "\u0120lar", "2486": "\u0120cage", "2487": "\u0120Doggy", "2488": "elp", "2489": "\u0120mel", "2490": "\u0120appeared", "2491": "\u0120Their", "2492": "\u0120Bunny", "2493": "urse", "2494": "\u0120puts", "2495": "\u0120smelled", "2496": "\u0120prince", "2497": "osaur", "2498": "oop", "2499": "ned", "2500": "\u0120sur", "2501": "\u0120pray", "2502": "\u0120gently", "2503": "\u0120gate", "2504": "\u0120Luna", "2505": "\u0120Grandma", "2506": "yard", "2507": "\u0120search", "2508": "\u0120matter", "2509": "\u0120dinosaur", "2510": "\u0120backyard", "2511": "And", "2512": "\u0120fear", "2513": "\u0120fil", "2514": "\u0120drum", "2515": "pa", "2516": "\u0120ship", "2517": "\u0120class", "2518": "\u0120towel", "2519": "\u0120queen", "2520": "\u0120gun", "2521": "\u0120circle", "2522": "\u0120van", "2523": "\u0120smiling", "2524": "\u0120couch", "2525": "\u0120Go", "2526": "aughter", "2527": "\u0120tear", "2528": "\u0120nearby", "2529": "\u0120imag", "2530": "\u0120icy", "2531": "\u0120yelled", "2532": "\u0120ashamed", "2533": "\u0120powerful", "2534": "gest", "2535": "\u0120wand", "2536": "\u0120quest", "2537": "\u0120places", "2538": "\u0120flag", "2539": "\u0120cri", "2540": "\u0120Somet", "2541": "\u0120Jerry", "2542": "Help", "2543": "\u0120law", "2544": "lev", "2545": "\u0120wom", "2546": "\u0120lamp", "2547": "\u0120af", "2548": "\u0120Why", "2549": "orrow", "2550": "icked", "2551": "\u0120woman", "2552": "\u0120pizza", "2553": "\u0120mir", "2554": "\u0120large", "2555": "\u0120daughter", "2556": "\u0120carried", "2557": "\u0120Mama", "2558": "My", "2559": "\u0120wrap", "2560": "\u0120trust", "2561": "\u0120journey", "2562": "\u0120glass", "2563": "\u0120ap", "2564": "ym", "2565": "Stop", "2566": "\u0120true", "2567": "\u0120rub", "2568": "\u0120neigh", "2569": "\u0120gas", "2570": "\u0120Jim", "2571": "vous", "2572": "ror", "2573": "ones", "2574": "\u0120tries", "2575": "\u0120neighb", "2576": "\u0120bal", "2577": "ique", "2578": "\u0120unique", "2579": "\u0120jeep", "2580": "\u0120ignor", "2581": "\u0120emb", "2582": "\u0120Jill", "2583": "isp", "2584": "ensive", "2585": "\u0120wearing", "2586": "\u0120fright", "2587": "\u0120expensive", "2588": "\u0120tomorrow", "2589": "\u0120hur", "2590": "\u0120goes", "2591": "\u0120If", "2592": "itter", "2593": "\u0120loves", "2594": "\u0120dizzy", "2595": "\u0120Be", "2596": "ced", "2597": "\u0120weird", "2598": "\u0120saf", "2599": "\u0120dig", "2600": "\u0120ants", "2601": "ugg", "2602": "raid", "2603": "\u0120these", "2604": "\u0120mirror", "2605": "\u0120hello", "2606": "\u0120dancing", "2607": "\u0120chase", "2608": "\u0120Bobby", "2609": "\u0120spring", "2610": "\u0120reg", "2611": "\u0120afraid", "2612": "\u0120scar", "2613": "\u0120nothing", "2614": "\u0120Br", "2615": "rass", "2616": "arrass", "2617": "\u0120poor", "2618": "\u0120frightened", "2619": "\u0120Tiny", "2620": "ndpa", "2621": "mer", "2622": "kn", "2623": "\u0120whisp", "2624": "\u0120test", "2625": "\u0120ner", "2626": "\u0120lazy", "2627": "\u0120embarrass", "2628": "\u0120eager", "2629": "\u0120cand", "2630": "iff", "2631": "\u0120protect", "2632": "aw", "2633": "\u0120tomato", "2634": "\u0120stood", "2635": "\u0120dest", "2636": "ness", "2637": "known", "2638": "\u0120success", "2639": "\u0120nervous", "2640": "bby", "2641": "\u0120splashed", "2642": "\u0120puzzle", "2643": "\u0120bridge", "2644": "\u0120wis", "2645": "\u0120wip", "2646": "\u0120unknown", "2647": "\u0120pay", "2648": "\u0120clay", "2649": "\u0120bake", "2650": "\u0120incred", "2651": "\u0120impress", "2652": "\u0120gold", "2653": "\u0120gigg", "2654": "\u0120gen", "2655": "\u0120decor", "2656": "\u0120creative", "2657": "ventually", "2658": "ina", "2659": "\u0120feet", "2660": "era", "2661": "\u0120incredible", "2662": "\u0120Rex", "2663": "\u0120tent", "2664": "\u0120sol", "2665": "\u0120sock", "2666": "\u0120sandwich", "2667": "\u0120lead", "2668": "\u0120teeth", "2669": "\u0120swan", "2670": "any", "2671": "\u0120useful", "2672": "\u0120clock", "2673": "\u0120Mary", "2674": "\u0120How", "2675": "ute", "2676": "ual", "2677": "\u0120steak", "2678": "\u0120respect", "2679": "\u0120boring", "2680": "\u0120Bird", "2681": "\u0120Bear", "2682": "berry", "2683": "\u0120straw", "2684": "\u0120square", "2685": "\u0120soap", "2686": "\u0120disco", "2687": "lves", "2688": "\u0120pres", "2689": "\u0120mixed", "2690": "\u0120fool", "2691": "\u0120closet", "2692": "owed", "2693": "\u0120potato", "2694": "\u0120peaceful", "2695": "\u0120pump", "2696": "\u0120mask", "2697": "\u0120knocked", "2698": "cream", "2699": "airs", "2700": "\u0120whale", "2701": "\u0120sword", "2702": "\u0120mysterious", "2703": "\u0120famous", "2704": "\u0120burn", "2705": "upid", "2706": "Tommy", "2707": "\u0120har", "2708": "\u0120gener", "2709": "\u0120bean", "2710": "\u0120Andy", "2711": "we", "2712": "rated", "2713": "\u0120yog", "2714": "\u0120sold", "2715": "\u0120shark", "2716": "\u0120answer", "2717": "\u01203", "2718": "\u0120sco", "2719": "cient", "2720": "bled", "2721": "arl", "2722": "\u0120wouldn", "2723": "\u0120rug", "2724": "\u0120polite", "2725": "\u0120kicked", "2726": "\u0120feed", "2727": "\u0120Please", "2728": "erri", "2729": "com", "2730": "\u0120snacks", "2731": "\u0120measure", "2732": "\u0120jam", "2733": "\u0120disg", "2734": "\u0120ancient", "2735": "\u0120relie", "2736": "\u0120corner", "2737": "\u0120blow", "2738": "ond", "2739": "\u0120space", "2740": "\u0120noisy", "2741": "\u0120esc", "2742": "reen", "2743": "ote", "2744": "imp", "2745": "\u0120spread", "2746": "\u0120scarf", "2747": "\u0120branches", "2748": "ormous", "2749": "\u0120stupid", "2750": "\u0120painted", "2751": "\u0120chocol", "2752": "\u0120Don", "2753": "rob", "2754": "\u0120shoe", "2755": "\u0120rough", "2756": "\u0120march", "2757": "\u0120eggs", "2758": "\u0120wagon", "2759": "\u0120paws", "2760": "uce", "2761": "\u0120study", "2762": "\u0120moms", "2763": "\u0120frust", "2764": "\u0120disgust", "2765": "\u0120dead", "2766": "\u0120dug", "2767": "\u0120crown", "2768": "robe", "2769": "\u0120terri", "2770": "\u0120foolish", "2771": "\u0120barn", "2772": "\u0120Sometimes", "2773": "enny", "2774": "Dad", "2775": "\u0120steal", "2776": "\u0120sell", "2777": "\u0120rare", "2778": "\u0120present", "2779": "\u0120mis", "2780": "\u0120enormous", "2781": "getable", "2782": "\u0120vegetable", "2783": "\u0120understood", "2784": "\u0120scare", "2785": "\u0120salad", "2786": "\u0120medic", "2787": "\u0120disgusting", "2788": "\u0120chocolate", "2789": "\u0120banana", "2790": "\u0120bald", "2791": "ighed", "2792": "edient", "2793": "corn", "2794": "ado", "2795": "\u0120stuff", "2796": "\u0120medicine", "2797": "\u0120hero", "2798": "\u0120generous", "2799": "\u0120clap", "2800": "fic", "2801": "\u0120group", "2802": "\u0120goose", "2803": "\u0120diffic", "2804": "\u0120bitter", "2805": "pes", "2806": "\u0120thick", "2807": "\u0120roar", "2808": "\u0120perform", "2809": "\u0120mush", "2810": "\u0120frustrated", "2811": "\u0120difficult", "2812": "\u0120breath", "2813": "\u0120Sammy", "2814": "\u0120Instead", "2815": "\u0120tick", "2816": "\u0120smaller", "2817": "\u0120shadow", "2818": "\u0120melon", "2819": "\u0120market", "2820": "\u0120covered", "2821": "\u0120Pe", "2822": "uitar", "2823": "\u0120tasted", "2824": "\u0120ord", "2825": "\u0120obedient", "2826": "\u0120guitar", "2827": "roy", "2828": "port", "2829": "orry", "2830": "mb", "2831": "\u0120wake", "2832": "alk", "2833": "\u0120lab", "2834": "\u0120hang", "2835": "\u0120horn", "2836": "\u0120destroy", "2837": "\u0120Some", "2838": "inal", "2839": "asses", "2840": "\u0120toug", "2841": "\u0120ref", "2842": "\u0120mountain", "2843": "\u0120mot", "2844": "\u0120bored", "2845": "\u0120asleep", "2846": "aking", "2847": "Timmy", "2848": "\u0120which", "2849": "\u0120taught", "2850": "\u0120standing", "2851": "usual", "2852": "land", "2853": "\u0120relieved", "2854": "\u0120harm", "2855": "\u0120become", "2856": "\u0120Brown", "2857": "\u0120tough", "2858": "\u0120terrible", "2859": "\u0120suit", "2860": "\u0120joined", "2861": "ungle", "2862": "atter", "2863": "alous", "2864": "\u0120squash", "2865": "\u0120pebble", "2866": "\u0120mushroom", "2867": "\u0120moving", "2868": "\u0120jealous", "2869": "\u0120exploring", "2870": "iginal", "2871": "fted", "2872": "als", "2873": "\u0120yourself", "2874": "\u0120parrot", "2875": "\u0120knife", "2876": "\u0120jungle", "2877": "\u0120adm", "2878": "Together", "2879": "Here", "2880": "\u0120unusual", "2881": "\u0120tun", "2882": "\u0120pumpkin", "2883": "\u0120discover", "2884": "\u0120clear", "2885": "\u0120asking", "2886": "\u0120spoiled", "2887": "\u0120prize", "2888": "\u0120dull", "2889": "ulb", "2890": "atch", "2891": "\u0120sunf", "2892": "\u0120fat", "2893": "\u0120chicken", "2894": "\u0120tiger", "2895": "\u0120popcorn", "2896": "\u0120nuts", "2897": "\u0120mighty", "2898": "\u0120thoughtful", "2899": "\u0120hears", "2900": "\u0120fine", "2901": "\u0120comb", "2902": "\u0120bulb", "2903": "ume", "2904": "mp", "2905": "ident", "2906": "\u0120vase", "2907": "\u0120twist", "2908": "\u0120tool", "2909": "\u0120stri", "2910": "\u0120seeds", "2911": "\u0120sque", "2912": "\u0120hay", "2913": "\u0120Poppy", "2914": "rag", "2915": "erce", "2916": "\u0120original", "2917": "\u0120fierce", "2918": "\u0120drop", "2919": "\u0120ind", "2920": "\u0120snee", "2921": "\u0120ending", "2922": "\u0120drawing", "2923": "\u0120cop", "2924": "\u0120Will", "2925": "\u0120thankful", "2926": "\u0120island", "2927": "\u0120carrots", "2928": "umsy", "2929": "Inside", "2930": "\u0120spent", "2931": "\u0120relax", "2932": "\u0120muff", "2933": "\u0120embarrassed", "2934": "\u0120cheap", "2935": "\u0120cro", "2936": "selves", "2937": "\u0120troubled", "2938": "\u0120mic", "2939": "\u0120knowing", "2940": "\u0120fold", "2941": "\u0120eng", "2942": "\u0120clown", "2943": "\u0120bloom", "2944": "\u0120aunt", "2945": "oto", "2946": "comfortable", "2947": "Are", "2948": "\u0120temp", "2949": "\u0120sunflower", "2950": "\u0120record", "2951": "\u0120frown", "2952": "\u0120finding", "2953": "\u0120balance", "2954": "\u0120Tr", "2955": "\u0120uncomfortable", "2956": "\u0120lose", "2957": "\u0120hats", "2958": "\u0120chest", "2959": "\u0120Many", "2960": "\u0120'", "2961": "ser", "2962": "irsty", "2963": "cean", "2964": "\u0120shoot", "2965": "\u0120ocean", "2966": "\u0120guess", "2967": "\u0120exciting", "2968": "\u0120cone", "2969": "\u0120adventur", "2970": "\u0120add", "2971": "\u0120Sunny", "2972": "\u0120Al", "2973": "xible", "2974": "iness", "2975": "ilt", "2976": "\u0120stamp", "2977": "\u0120lifted", "2978": "\u0120acorn", "2979": "yal", "2980": "opard", "2981": "dle", "2982": "\u0120trick", "2983": "\u0120seal", "2984": "\u0120scatter", "2985": "\u0120clumsy", "2986": "\u0120Jenny", "2987": "angle", "2988": "ages", "2989": "Sorry", "2990": "\u0120wrote", "2991": "\u0120pasta", "2992": "\u0120hairy", "2993": "\u0120cush", "2994": "\u0120adventurous", "2995": "lace", "2996": "Where", "2997": "\u0120unl", "2998": "\u0120picks", "2999": "\u0120necklace", "3000": "\u0120loyal", "3001": "\u0120crazy", "3002": "\u0120cats", "3003": "\u0120body", "3004": "\u0120arrow", "3005": "ti", "3006": "erries", "3007": "\u0120tells", "3008": "\u0120stubb", "3009": "\u0120hose", "3010": "\u0120harmless", "3011": "\u0120exam", "3012": "\u0120depend", "3013": "\u0120comfortable", "3014": "\u0120cost", "3015": "\u0120brace", "3016": "\u0120berries", "3017": "xious", "3018": "urkey", "3019": "iant", "3020": "amond", "3021": "apped", "3022": "\u0120searched", "3023": "\u0120deliver", "3024": "\u0120behave", "3025": "tti", "3026": "hetti", "3027": "aghetti", "3028": "\u0120organized", "3029": "\u0120engine", "3030": "\u0120diamond", "3031": "\u0120anxious", "3032": "gu", "3033": "ependent", "3034": "Molly", "3035": "\u0120stubborn", "3036": "\u0120remind", "3037": "\u0120mov", "3038": "\u0120fis", "3039": "\u0120crayon", "3040": "\u0120collect", "3041": "light", "3042": "\u0120thirsty", "3043": "\u0120turkey", "3044": "\u0120swe", "3045": "\u0120stretch", "3046": "\u0120scr", "3047": "\u0120practiced", "3048": "\u0120playful", "3049": "\u0120Emily", "3050": "host", "3051": "anged", "3052": "\u0120word", "3053": "\u0120tied", "3054": "\u0120pir", "3055": "\u0120mailbox", "3056": "\u0120jug", "3057": "\u0120gloomy", "3058": "\u0120frag", "3059": "\u0120envel", "3060": "\u0120env", "3061": "\u0120bubbles", "3062": "lph", "3063": "illa", "3064": "dile", "3065": "codile", "3066": "ants", "3067": "\u0120yours", "3068": "\u0120spaghetti", "3069": "\u0120rep", "3070": "\u0120raced", "3071": "\u0120prun", "3072": "\u0120police", "3073": "\u0120independent", "3074": "\u0120flexible", "3075": "\u0120crawl", "3076": "\u0120bathroom", "3077": "\u0120barber", "3078": "How", "3079": "\u0120sil", "3080": "\u0120pro", "3081": "\u0120escape", "3082": "\u0120deer", "3083": "\u0120crack", "3084": "\u0120Even", "3085": "\u0120pige", "3086": "\u0120passed", "3087": "\u0120motor", "3088": "\u0120liz", "3089": "\u0120ghost", "3090": "\u0120fragile", "3091": "\u0120U", "3092": "aff", "3093": "\u0120needs", "3094": "\u0120jolly", "3095": "\u0120dependable", "3096": "\u0120deaf", "3097": "\u0120celebrate", "3098": "shine", "3099": "io", "3100": "\u0120wheat", "3101": "\u0120stove", "3102": "\u0120roof", "3103": "\u0120rat", "3104": "\u0120fig", "3105": "\u0120dove", "3106": "\u0120dolph", "3107": "\u0120chess", "3108": "\u0120bees", "3109": "\u0120While", "3110": "cident", "3111": "\u0120stat", "3112": "\u0120raven", "3113": "\u0120leopard", "3114": "\u0120flash", "3115": "\u0120crocodile", "3116": "\u0120brill", "3117": "\u0120attic", "3118": "nic", "3119": "\u0120yarn", "3120": "\u0120sung", "3121": "\u0120shows", "3122": "\u0120painting", "3123": "\u0120press", "3124": "\u0120map", "3125": "\u0120log", "3126": "\u0120explained", "3127": "\u0120changed", "3128": "\u0120brilliant", "3129": "\u0120boys", "3130": "ground", "3131": "Their", "3132": "If", "3133": "\u0120weal", "3134": "\u0120thu", "3135": "\u0120picnic", "3136": "\u0120humble", "3137": "\u0120colour", "3138": "\u0120zip", "3139": "\u0120tricks", "3140": "\u0120shiver", "3141": "\u0120mill", "3142": "\u0120crawled", "3143": "\u0120board", "3144": "\u0120er", "3145": "nel", "3146": "hip", "3147": "\u0120using", "3148": "\u0120temple", "3149": "\u0120ignorant", "3150": "\u0120envelope", "3151": "\u0120choose", "3152": "weet", "3153": "lasses", "3154": "iv", "3155": "Me", "3156": "Mama", "3157": "\u0120sunglasses", "3158": "\u0120send", "3159": "\u0120ruined", "3160": "\u0120hoop", "3161": "\u0120friendship", "3162": "\u0120frame", "3163": "\u0120cheerful", "3164": "\u0120balloons", "3165": "\u0120avoc", "3166": "net", "3167": "met", "3168": "inary", "3169": "\u0120raft", "3170": "\u0120popular", "3171": "\u0120pepper", "3172": "\u0120knee", "3173": "\u0120folder", "3174": "\u0120counted", "3175": "\u0120built", "3176": "\u0120bottom", "3177": "\u0120batter", "3178": "\u0120accident", "3179": "most", "3180": "iddle", "3181": "\u0120waves", "3182": "\u0120stones", "3183": "\u0120spotted", "3184": "\u0120rose", "3185": "\u0120pants", "3186": "\u0120helmet", "3187": "\u0120delicate", "3188": "\u0120compet", "3189": "work", "3190": "ulu", "3191": "igator", "3192": "Every", "3193": "\u0120triangle", "3194": "\u0120toast", "3195": "\u0120sunshine", "3196": "\u0120spill", "3197": "\u0120screen", "3198": "\u0120kissed", "3199": "\u0120jack", "3200": "\u0120envious", "3201": "umpet", "3202": "fee", "3203": "ffee", "3204": "erable", "3205": "\u0120trumpet", "3206": "\u0120stage", "3207": "\u0120sighed", "3208": "\u0120miserable", "3209": "\u0120middle", "3210": "\u0120louder", "3211": "\u0120lizard", "3212": "\u0120cleaning", "3213": "\u0120careless", "3214": "\u0120Your", "3215": "ying", "3216": "ither", "3217": "Jane", "3218": "\u0120wander", "3219": "\u0120vegetables", "3220": "\u0120tunnel", "3221": "\u0120statue", "3222": "\u0120serious", "3223": "\u0120scale", "3224": "\u0120pigeon", "3225": "\u0120pow", "3226": "\u0120impressive", "3227": "\u0120harsh", "3228": "\u0120finger", "3229": "\u0120almost", "3230": "\u0120No", "3231": "seum", "3232": "iable", "3233": "\u0120sailed", "3234": "\u0120maze", "3235": "\u0120hopping", "3236": "\u0120bracelet", "3237": "\u0120borrow", "3238": "\u0120belt", "3239": "\u0120alligator", "3240": "\u0120Sh", "3241": "\u0120slipped", "3242": "\u0120nosy", "3243": "\u0120napkin", "3244": "\u0120museum", "3245": "\u0120meant", "3246": "\u0120guard", "3247": "\u0120figure", "3248": "\u0120earth", "3249": "There", "3250": "\u0120washed", "3251": "\u0120taken", "3252": "\u0120saus", "3253": "\u0120post", "3254": "\u0120penny", "3255": "\u0120compl", "3256": "\u0120bin", "3257": "\u0120attract", "3258": "Mum", "3259": "\u0120reliable", "3260": "\u0120rh", "3261": "\u0120neighbor", "3262": "\u0120movie", "3263": "\u0120jellyfish", "3264": "\u0120jacket", "3265": "\u0120hurts", "3266": "\u0120happiness", "3267": "\u0120gar", "3268": "\u0120coffee", "3269": "\u0120cries", "3270": "\u0120coo", "3271": "ctop", "3272": "berries", "3273": "\u0120ordinary", "3274": "\u0120knight", "3275": "\u0120gor", "3276": "\u0120filthy", "3277": "\u0120attractive", "3278": "aser", "3279": "\u0120wealthy", "3280": "\u0120shore", "3281": "\u0120radio", "3282": "\u0120ones", "3283": "\u0120gem", "3284": "\u0120cushion", "3285": "\u0120cam", "3286": "utom", "3287": "utomob", "3288": "utomobile", "3289": "ipper", "3290": "\u0120walks", "3291": "\u0120peach", "3292": "\u0120muffin", "3293": "\u0120magnet", "3294": "\u0120forward", "3295": "\u0120cab", "3296": "\u0120boxes", "3297": "\u0120belonged", "3298": "live", "3299": "\u0120tag", "3300": "\u0120shells", "3301": "\u0120shade", "3302": "\u0120poured", "3303": "\u0120nod", "3304": "\u0120locked", "3305": "\u0120gorilla", "3306": "\u0120camera", "3307": "zzy", "3308": "pack", "3309": "llip", "3310": "llipop", "3311": "\u0120whispered", "3312": "\u0120regular", "3313": "\u0120persist", "3314": "\u0120lollipop", "3315": "\u0120fluffy", "3316": "\u0120dolphin", "3317": "\u0120cabin", "3318": "\u0120boats", "3319": "\u0120answered", "3320": "\u0120automobile", "3321": "ony", "3322": "ext", "3323": "appy", "3324": "\u0120times", "3325": "\u0120nods", "3326": "\u0120giving", "3327": "\u0120drawer", "3328": "\u0120desk", "3329": "dom", "3330": "\u0120smoke", "3331": "\u0120sailor", "3332": "\u0120mule", "3333": "\u0120load", "3334": "\u0120four", "3335": "\u0120create", "3336": "\u0120competit", "3337": "\u0120Miss", "3338": "uth", "3339": "omes", "3340": "ctopus", "3341": "coa", "3342": "cles", "3343": "\u0120travel", "3344": "\u0120saying", "3345": "\u0120lotion", "3346": "\u0120judge", "3347": "\u0120gum", "3348": "\u0120chu", "3349": "inky", "3350": "ete", "3351": "\u0120witch", "3352": "\u0120twig", "3353": "\u0120stronger", "3354": "\u0120sniff", "3355": "\u0120shrimp", "3356": "\u0120delight", "3357": "\u0120cupboard", "3358": "\u0120chubby", "3359": "\u0120ang", "3360": "\u0120Today", "3361": "\u0120Jake", "3362": "und", "3363": "ict", "3364": "ging", "3365": "Go", "3366": "\u0120wool", "3367": "\u0120successful", "3368": "\u0120returned", "3369": "\u0120libr", "3370": "\u0120invited", "3371": "\u0120houses", "3372": "\u0120garage", "3373": "\u0120bubble", "3374": "urb", "3375": "essie", "3376": "\u0120support", "3377": "\u0120showing", "3378": "\u0120nicely", "3379": "\u0120needle", "3380": "\u0120mole", "3381": "\u0120lively", "3382": "\u0120lean", "3383": "\u0120helpless", "3384": "mbre", "3385": "Who", "3386": "\u0120yet", "3387": "\u0120umbre", "3388": "\u0120persistent", "3389": "\u0120moder", "3390": "\u0120helps", "3391": "\u0120grown", "3392": "\u0120fearful", "3393": "\u0120dough", "3394": "\u0120alert", "3395": "ief", "3396": "anut", "3397": "\u0120trunk", "3398": "\u0120squee", "3399": "\u0120solve", "3400": "\u0120shine", "3401": "\u0120scoot", "3402": "\u0120radish", "3403": "\u0120gets", "3404": "\u0120fridge", "3405": "\u0120dreams", "3406": "\u0120disturb", "3407": "\u0120club", "3408": "anger", "3409": "\u0120value", "3410": "\u0120sleeping", "3411": "\u0120octopus", "3412": "\u0120modern", "3413": "\u0120licked", "3414": "\u0120low", "3415": "\u0120decide", "3416": "\u0120cooked", "3417": "\u0120bedroom", "3418": "\u0120Lulu", "3419": "oin", "3420": "\u0120repe", "3421": "\u0120loudly", "3422": "\u0120creature", "3423": "\u0120cere", "3424": "\u0120carp", "3425": "\u0120bounced", "3426": "otter", "3427": "\u0120wishes", "3428": "\u0120ways", "3429": "\u0120uncle", "3430": "\u0120tire", "3431": "\u0120tank", "3432": "\u0120speed", "3433": "\u0120speak", "3434": "\u0120sort", "3435": "\u0120sle", "3436": "\u0120quar", "3437": "\u0120hive", "3438": "\u0120dive", "3439": "\u0120city", "3440": "\u0120base", "3441": "\u0120acce", "3442": "\u0120Sn", "3443": "\u0120otter", "3444": "ense", "3445": "azz", "3446": "\u0120umbrella", "3447": "\u0120truth", "3448": "\u0120thunder", "3449": "\u0120split", "3450": "\u0120learning", "3451": "\u0120harder", "3452": "\u0120hipp", "3453": "\u0120gym", "3454": "\u0120eraser", "3455": "\u0120candle", "3456": "orable", "3457": "Sarah", "3458": "\u0120station", "3459": "\u0120spend", "3460": "\u0120repair", "3461": "\u0120lit", "3462": "xy", "3463": "ric", "3464": "ilty", "3465": "cut", "3466": "\u0120order", "3467": "\u0120mop", "3468": "\u0120mild", "3469": "\u0120guilty", "3470": "\u0120father", "3471": "\u0120cherries", "3472": "\u0120chalk", "3473": "\u0120cereal", "3474": "ye", "3475": "ulif", "3476": "iron", "3477": "Billy", "3478": "\u0120wheels", "3479": "\u0120week", "3480": "\u0120vine", "3481": "\u0120thief", "3482": "\u0120quarrel", "3483": "\u0120pointing", "3484": "\u0120jewelry", "3485": "\u0120jet", "3486": "\u0120flashlight", "3487": "\u0120cocoa", "3488": "\u0120biggest", "3489": "tern", "3490": "atient", "3491": "\u0120soar", "3492": "\u0120sink", "3493": "\u0120knot", "3494": "\u0120impatient", "3495": "\u0120homes", "3496": "\u0120grace", "3497": "\u0120fountain", "3498": "\u0120caulif", "3499": "\u0120cact", "3500": "\u0120adorable", "3501": "\u0120True", "3502": "\u0120Rob", "3503": "\u0120ed", "3504": "gen", "3505": "asing", "3506": "\u0120powder", "3507": "\u0120library", "3508": "\u0120happening", "3509": "\u0120carpet", "3510": "\u0120cactus", "3511": "\u0120sweater", "3512": "\u0120stream", "3513": "\u0120skipped", "3514": "\u0120pengu", "3515": "\u0120office", "3516": "\u0120herb", "3517": "\u0120forth", "3518": "\u0120case", "3519": "ten", "3520": "keep", "3521": "irit", "3522": "arming", "3523": "Bobo", "3524": "\u0120staff", "3525": "\u0120shield", "3526": "\u0120lying", "3527": "\u0120half", "3528": "\u0120grandpa", "3529": "\u0120fork", "3530": "\u0120flute", "3531": "\u0120fisher", "3532": "\u0120Dolly", "3533": "rage", "3534": "rn", "3535": "ory", "3536": "oby", "3537": "ject", "3538": "isted", "3539": "\u0120whenever", "3540": "\u0120hippo", "3541": "\u0120handle", "3542": "\u0120grapes", "3543": "\u0120charming", "3544": "esday", "3545": "assion", "3546": "\u0120valu", "3547": "\u0120tripped", "3548": "\u0120skin", "3549": "\u0120feathers", "3550": "\u0120counting", "3551": "\u0120cauliflower", "3552": "\u0120angel", "3553": "zed", "3554": "ped", "3555": "levator", "3556": "acht", "3557": "\u0120ticket", "3558": "\u0120thinking", "3559": "\u0120themselves", "3560": "\u0120tap", "3561": "\u0120strawberry", "3562": "\u0120slept", "3563": "\u0120marry", "3564": "\u0120led", "3565": "\u0120knows", "3566": "\u0120hunt", "3567": "\u0120elevator", "3568": "\u0120design", "3569": "\u0120avocado", "3570": "\u0120Peter", "3571": "was", "3572": "washer", "3573": "lephone", "3574": "edy", "3575": "\u0120yacht", "3576": "\u0120wrapped", "3577": "\u0120telephone", "3578": "\u0120spun", "3579": "\u0120gifted", "3580": "\u0120eventually", "3581": "\u0120dishwasher", "3582": "\u0120complain", "3583": "\u0120competitive", "3584": "ellig", "3585": "\u0120skip", "3586": "\u0120shrink", "3587": "\u0120intellig", "3588": "\u0120excite", "3589": "\u0120iron", "3590": "Mummy", "3591": "\u0120tray", "3592": "\u0120towers", "3593": "\u0120sauce", "3594": "\u0120quit", "3595": "\u0120photo", "3596": "\u0120haircut", "3597": "\u0120gathered", "3598": "\u0120flea", "3599": "\u0120disappoin", "3600": "\u0120compassion", "3601": "rill", "3602": "ates", "3603": "\u0120wire", "3604": "\u0120pole", "3605": "\u0120poem", "3606": "\u0120pirate", "3607": "\u0120nurse", "3608": "\u0120giggled", "3609": "\u0120decorate", "3610": "\u0120deter", "3611": "\u0120anch", "3612": "\u0120Tweet", "3613": "\u0120Rose", "3614": "ulance", "3615": "opl", "3616": "eropl", "3617": "elery", "3618": "bulance", "3619": "Jim", "3620": "\u0120waff", "3621": "\u0120valuable", "3622": "\u0120torn", "3623": "\u0120toe", "3624": "\u0120shape", "3625": "\u0120restless", "3626": "\u0120question", "3627": "\u0120ham", "3628": "\u0120ears", "3629": "\u0120cricket", "3630": "\u0120anchor", "3631": "\u0120ambulance", "3632": "\u0120aeropl", "3633": "Fluffy", "3634": "\u0120yaw", "3635": "\u0120vide", "3636": "\u0120slides", "3637": "\u0120numb", "3638": "\u0120hotel", "3639": "\u0120determ", "3640": "\u0120buttons", "3641": "\u0120barrel", "3642": "ision", "3643": "ats", "3644": "aged", "3645": "ache", "3646": "Give", "3647": "\u0120stranger", "3648": "\u0120sett", "3649": "\u0120edge", "3650": "body", "3651": "ating", "3652": "\u0120zipper", "3653": "\u0120wife", "3654": "\u0120unlock", "3655": "\u0120trail", "3656": "\u0120tears", "3657": "\u0120shut", "3658": "\u0120sight", "3659": "\u0120pattern", "3660": "\u0120numbers", "3661": "\u0120meal", "3662": "\u0120celery", "3663": "\u0120bull", "3664": "old", "3665": "\u0120weigh", "3666": "\u0120trap", "3667": "\u0120spinning", "3668": "\u0120salt", "3669": "\u0120ribb", "3670": "\u0120pit", "3671": "\u0120means", "3672": "\u0120laughs", "3673": "\u0120intelligent", "3674": "\u0120fisherman", "3675": "\u0120disappointed", "3676": "\u0120compassionate", "3677": "\u0120bushes", "3678": "\u0120Jimmy", "3679": "\u0120Boun", "3680": "del", "3681": "?\".", "3682": "\u0120ple", "3683": "\u0120model", "3684": "\u0120comput", "3685": "\u0120cardboard", "3686": "\u0120bananas", "3687": "spit", "3688": "spital", "3689": "keeper", "3690": "iew", "3691": "head", "3692": "\u0120walls", "3693": "\u0120view", "3694": "\u0120surf", "3695": "\u0120soldier", "3696": "\u0120pear", "3697": "\u0120newsp", "3698": "\u0120mug", "3699": "\u0120juicy", "3700": "\u0120ink", "3701": "\u0120hospital", "3702": "\u0120either", "3703": "\u0120Toby", "3704": "\u0120Pete", "3705": "\u0120Kim", "3706": "quit", "3707": "quito", "3708": "ophie", "3709": "dest", "3710": "\u0120short", "3711": "\u0120rid", "3712": "\u0120oil", "3713": "\u0120mitten", "3714": "\u0120curt", "3715": "\u0120birdc", "3716": "\u0120added", "3717": "nam", "3718": "ention", "3719": "Mr", "3720": "'d", "3721": "\u0120succe", "3722": "\u0120spear", "3723": "\u0120silver", "3724": "\u0120safely", "3725": "\u0120prep", "3726": "\u0120pee", "3727": "\u0120pap", "3728": "\u0120pal", "3729": "\u0120nail", "3730": "\u0120distant", "3731": "\u0120curtain", "3732": "\u0120birdcage", "3733": "\u0120People", "3734": "ushed", "3735": "squito", "3736": "!\".", "3737": "\u0120spilled", "3738": "\u0120mosquito", "3739": "\u0120enc", "3740": "\u0120crib", "3741": "utes", "3742": "uring", "3743": "uper", "3744": "ron", "3745": "fa", "3746": "aving", "3747": "\u0120yogurt", "3748": "\u0120wiped", "3749": "\u0120tummy", "3750": "\u0120task", "3751": "\u0120rode", "3752": "\u0120questions", "3753": "\u0120playground", "3754": "\u0120painter", "3755": "\u0120pale", "3756": "\u0120purse", "3757": "\u0120lights", "3758": "\u0120label", "3759": "\u0120dreamed", "3760": "\u0120costume", "3761": "\u0120coins", "3762": "\u0120cob", "3763": "\u0120bikes", "3764": "\u0120bump", "3765": "\u0120Buzz", "3766": "par", "3767": "\u0120succeed", "3768": "\u0120spirit", "3769": "\u0120shocked", "3770": "\u0120rubber", "3771": "\u0120pretending", "3772": "\u0120motorcy", "3773": "\u0120minutes", "3774": "\u0120graceful", "3775": "\u0120glove", "3776": "\u0120aeroplane", "3777": "\u0120OK", "3778": "urch", "3779": "opter", "3780": "ocer", "3781": "inocer", "3782": "icopter", "3783": "ately", "3784": "ait", "3785": ",\u00e2\u0122\u013f", "3786": "\u0120stack", "3787": "\u0120sausage", "3788": "\u0120prov", "3789": "\u0120palace", "3790": "\u0120por", "3791": "\u0120itself", "3792": "\u0120helicopter", "3793": "\u0120falls", "3794": "\u0120dust", "3795": "\u0120computer", "3796": "\u0120collar", "3797": "\u0120coal", "3798": "\u0120chain", "3799": "\u0120Little", "3800": "uel", "3801": "stal", "3802": "riger", "3803": "rigerator", "3804": "nament", "3805": "inoceros", "3806": "\u0120scooter", "3807": "\u0120pun", "3808": "\u0120ornament", "3809": "\u0120knob", "3810": "\u0120kindness", "3811": "\u0120crystal", "3812": "ucet", "3813": "\u0120steps", "3814": "\u0120rod", "3815": "\u0120parade", "3816": "\u0120packed", "3817": "\u0120oak", "3818": "\u0120melt", "3819": "\u0120lime", "3820": "\u0120golf", "3821": "\u0120gear", "3822": "\u0120faucet", "3823": "\u0120ax", "3824": "\u0120Teddy", "3825": "umbled", "3826": "\u0120vend", "3827": "\u0120those", "3828": "\u0120refrigerator", "3829": "\u0120newspaper", "3830": "\u0120modest", "3831": "\u0120lie", "3832": "\u0120leash", "3833": "\u0120hour", "3834": "\u0120eye", "3835": "\u0120baseball", "3836": "\u0120Everywhere", "3837": "ugged", "3838": "rework", "3839": "levision", "3840": "ilot", "3841": "cing", "3842": "Is", "3843": "\u0120separ", "3844": "\u0120super", "3845": "\u0120rhinoceros", "3846": "\u0120picking", "3847": "\u0120matt", "3848": "\u0120makeup", "3849": "\u0120lic", "3850": "\u0120hate", "3851": "\u0120firework", "3852": "\u0120fog", "3853": "\u0120driving", "3854": "\u0120disappeared", "3855": "\u0120complet", "3856": "\u0120cable", "3857": "\u0120brothers", "3858": "\u0120avail", "3859": "\u0120Bill", "3860": "stri", "3861": "ampoo", "3862": "\u0120video", "3863": "\u0120television", "3864": "\u0120swinging", "3865": "\u0120sofa", "3866": "\u0120serve", "3867": "\u0120resc", "3868": "\u0120pine", "3869": "\u0120onion", "3870": "\u0120often", "3871": "\u0120novel", "3872": "\u0120license", "3873": "\u0120inse", "3874": "\u0120Spike", "3875": "\u0120Give", "3876": "time", "3877": "roph", "3878": "aked", "3879": "Well", "3880": "\u0120spell", "3881": "\u0120rubbed", "3882": "\u0120polish", "3883": "\u0120medal", "3884": "\u0120managed", "3885": "\u0120math", "3886": "\u0120hall", "3887": "\u0120hook", "3888": "\u0120determined", "3889": "\u0120cups", "3890": "\u0120church", "3891": "\u0120axe", "3892": "\u0120available", "3893": "\u0120Cl", "3894": "\u0120Birdy", "3895": "web", "3896": "rophone", "3897": "\u0120taller", "3898": "\u0120sparkly", "3899": "\u0120screw", "3900": "\u0120porch", "3901": "\u0120missile", "3902": "\u0120meadow", "3903": "\u0120drawings", "3904": "\u0120disappear", "3905": "\u0120cooler", "3906": "\u0120cobweb", "3907": "\u0120bags", "3908": "\u0120alarm", "3909": "\u0120Mum", "3910": "\u0120Fo", "3911": "\u0120Bet", "3912": "stairs", "3913": "htub", "3914": "drobe", "3915": "ckey", "3916": "arry", "3917": "\u0120wardrobe", "3918": "\u0120vendor", "3919": "\u0120stared", "3920": "\u0120penguin", "3921": "\u0120metal", "3922": "\u0120hockey", "3923": "\u0120growl", "3924": "\u0120diary", "3925": "\u0120climbing", "3926": "\u0120bookshe", "3927": "\u0120bathtub", "3928": "\u0120basketball", "3929": "\u0120bandage", "3930": "\u0120ig", "3931": "usia", "3932": "ready", "3933": "loo", "3934": "husia", "3935": "erc", "3936": "Bye", "3937": "\u0120veil", "3938": "\u0120thread", "3939": "\u0120rolling", "3940": "\u0120rice", "3941": "\u0120ostri", "3942": "\u0120miner", "3943": "\u0120meat", "3944": "\u0120may", "3945": "\u0120igloo", "3946": "\u0120hurry", "3947": "\u0120gasped", "3948": "\u0120enthusia", "3949": "\u0120cherry", "3950": "\u0120bookshelf", "3951": "\u0120battery", "3952": "\u0120already", "3953": "\u0120Johnny", "3954": "omed", "3955": "Wait", "3956": "Re", "3957": "\u0120swung", "3958": "\u0120stud", "3959": "\u0120stretched", "3960": "\u0120root", "3961": "\u0120rise", "3962": "\u0120papers", "3963": "\u0120organize", "3964": "\u0120magaz", "3965": "\u0120knock", "3966": "\u0120itch", "3967": "\u0120insect", "3968": "\u0120hunter", "3969": "\u0120grape", "3970": "\u0120explain", "3971": "\u0120comet", "3972": "\u0120Snow", "3973": "\u0120Pipp", "3974": "verse", "3975": "istol", "3976": "affe", "3977": "See", "3978": "Al", "3979": "\u0120object", "3980": "\u0120ok", "3981": "\u0120notice", "3982": "\u0120motorcycle", "3983": "\u0120microphone", "3984": "\u0120mattress", "3985": "\u0120mummy", "3986": "\u0120lumber", "3987": "\u0120bicy", "3988": "ricane", "3989": "nger", "3990": "\u0120snap", "3991": "\u0120realised", "3992": "\u0120reward", "3993": "\u0120pistol", "3994": "\u0120pilot", "3995": "\u0120mustache", "3996": "\u0120impro", "3997": "\u0120flame", "3998": "\u0120exerc", "3999": "\u0120encou", "4000": "\u0120dreaming", "4001": "\u0120dess", "4002": "\u0120cooking", "4003": "\u0120arg", "4004": "ometer", "4005": "lcan", "4006": "asp", "4007": "aul", "4008": "Gra", "4009": "\u0120winter", "4010": "\u0120wallet", "4011": "\u0120volcan", "4012": "\u0120unpack", "4013": "\u0120troph", "4014": "\u0120suggest", "4015": "\u0120sheet", "4016": "\u0120jokes", "4017": "\u0120flour", "4018": "\u0120fought", "4019": "\u0120blackboard", "4020": "\u0120Zoomy", "4021": "rmometer", "4022": "lter", "4023": "ipe", "4024": "iano", "4025": "aches", "4026": "\u0120peanut", "4027": "\u0120pastry", "4028": "\u0120network", "4029": "\u0120falling", "4030": "\u0120buckle", "4031": "\u0120blin", "4032": "\u0120bicycle", "4033": "\u0120Lee", "4034": "aid", "4035": "Ouch", "4036": "\u0120volcano", "4037": "\u0120vi", "4038": "\u0120trucks", "4039": "\u0120trophy", "4040": "\u0120sunset", "4041": "\u0120shampoo", "4042": "\u0120rake", "4043": "\u0120calling", "4044": "\u0120camp", "4045": "\u0120bent", "4046": "aky", "4047": "\u0120weep", "4048": "\u0120stom", "4049": "\u0120pressed", "4050": "\u0120practice", "4051": "\u0120piano", "4052": "\u0120ostrich", "4053": "\u0120neat", "4054": "\u0120drain", "4055": "\u0120beef", "4056": "\u0120attach", "4057": "\u0120Pandy", "4058": "ured", "4059": "lies", "4060": "aspoon", "4061": "angu", "4062": "\u0120trains", "4063": "\u0120teaspoon", "4064": "\u0120sweetie", "4065": "\u0120stable", "4066": "\u0120shelter", "4067": "\u0120poke", "4068": "\u0120package", "4069": "\u0120mem", "4070": "\u0120human", "4071": "\u0120hours", "4072": "\u0120hanging", "4073": "\u0120hammer", "4074": "\u0120bury", "4075": "\u0120apron", "4076": "ummer", "4077": "bol", "4078": "aroo", "4079": "angaroo", "4080": "\u0120track", "4081": "\u0120squirrels", "4082": "\u0120sne", "4083": "\u0120sym", "4084": "\u0120rag", "4085": "\u0120patch", "4086": "\u0120offered", "4087": "\u0120message", "4088": "\u0120marched", "4089": "\u0120kangaroo", "4090": "\u0120ins", "4091": "\u0120hut", "4092": "\u0120enjoying", "4093": "\u0120discovered", "4094": "\u0120crane", "4095": "\u0120blouse", "4096": "\u0120against", "4097": "\u0120ow", "4098": "zag", "4099": "ube", "4100": "play", "4101": "igzag", "4102": "ctory", "4103": "\u0120ur", "4104": "\u0120tube", "4105": "\u0120symbol", "4106": "\u0120skull", "4107": "\u0120skirt", "4108": "\u0120prunes", "4109": "\u0120passport", "4110": "\u0120magazine", "4111": "\u0120lend", "4112": "\u0120langu", "4113": "\u0120factory", "4114": "\u0120early", "4115": "\u0120display", "4116": "\u0120Jo", "4117": "ature", "4118": "\u0120stairs", "4119": "\u0120shovel", "4120": "\u0120prevent", "4121": "\u0120peeked", "4122": "\u0120nation", "4123": "\u0120holds", "4124": "\u0120frogs", "4125": "\u0120fingers", "4126": "\u0120fuel", "4127": "\u0120excitement", "4128": "\u0120Fro", "4129": "stic", "4130": "Little", "4131": "\u0120univer", "4132": "\u0120ten", "4133": "\u0120son", "4134": "\u0120rot", "4135": "\u0120perm", "4136": "\u0120once", "4137": "\u0120lip", "4138": "\u0120journal", "4139": "\u0120enthusiastic", "4140": "\u0120dessert", "4141": "\u0120check", "4142": "\u0120castles", "4143": "\u0120cell", "4144": "\u0120bathe", "4145": "\u0120accidentally", "4146": "\u0120Zip", "4147": "\u0120Look", "4148": "\u0120Bessie", "4149": "leton", "4150": "keleton", "4151": "\u0120yoga", "4152": "\u0120theater", "4153": "\u0120popped", "4154": "\u0120opens", "4155": "\u0120oy", "4156": "\u0120kne", "4157": "\u0120junk", "4158": "\u0120happier", "4159": "\u0120freez", "4160": "\u0120football", "4161": "\u0120cube", "4162": "\u0120Dan", "4163": "ium", "4164": "ience", "4165": "ffic", "4166": "\u0120zoomed", "4167": "\u0120thermometer", "4168": "\u0120telling", "4169": "\u0120shaking", "4170": "\u0120skeleton", "4171": "\u0120reading", "4172": "\u0120pipe", "4173": "\u0120matches", "4174": "\u0120loop", "4175": "\u0120hedge", "4176": "\u0120growing", "4177": "\u0120five", "4178": "\u0120cord", "4179": "\u0120bathrobe", "4180": "\u0120allowed", "4181": "\u0120Here", "4182": "\u0120Buzzy", "4183": "xygen", "4184": "ination", "4185": "come", "4186": "azor", "4187": "\u0120slipp", "4188": "\u0120restore", "4189": "\u0120fastest", "4190": "\u0120distance", "4191": "\u0120disag", "4192": "\u0120\u00e2\u0122", "4193": "ney", "4194": "ionary", "4195": "ines", "4196": "ictionary", "4197": "\u0120stumbled", "4198": "\u0120pinch", "4199": "\u0120listening", "4200": "\u0120hanger", "4201": "hero", "4202": "case", "4203": "\u0120viol", "4204": "\u0120superhero", "4205": "\u0120stirred", "4206": "\u0120ribbon", "4207": "\u0120planet", "4208": "\u0120peek", "4209": "\u0120goal", "4210": "\u0120film", "4211": "\u0120dictionary", "4212": "\u0120admire", "4213": "\u0120ahead", "4214": "fast", "4215": "Sh", "4216": "Joe", "4217": "\u0120violin", "4218": "\u0120trash", "4219": "\u0120toile", "4220": "\u0120surprises", "4221": "\u0120stickers", "4222": "\u0120reverse", "4223": "\u0120helper", "4224": "\u0120gaz", "4225": "\u0120complete", "4226": "\u0120chose", "4227": "\u0120brick", "4228": "\u0120alive", "4229": "\u0120Tina", "4230": "\u0120Mummy", "4231": "astic", "4232": "arian", "4233": "\u0120strugg", "4234": "\u0120stops", "4235": "\u0120sub", "4236": "\u0120poppy", "4237": "\u0120pony", "4238": "\u0120jumps", "4239": "\u0120chasing", "4240": "undry", "4241": "place", "4242": "iest", "4243": "cu", "4244": "apon", "4245": "Jill", "4246": "\u0120respectful", "4247": "\u0120rail", "4248": "\u0120mineral", "4249": "\u0120laundry", "4250": "\u0120freezer", "4251": "\u0120doesn", "4252": "\u0120circles", "4253": "\u0120cudd", "4254": "\u0120breakfast", "4255": "\u0120blinked", "4256": "\u0120bill", "4257": "\u0120accept", "4258": "\u0120Ellie", "4259": "stiv", "4260": "stival", "4261": "render", "4262": "lid", "4263": "chan", "4264": "\u0120vest", "4265": "\u0120toilet", "4266": "\u0120tooth", "4267": "\u0120switch", "4268": "\u0120strip", "4269": "\u0120summer", "4270": "\u0120refused", "4271": "\u0120player", "4272": "\u0120leaving", "4273": "\u0120laser", "4274": "\u0120hurricane", "4275": "\u0120grill", "4276": "\u0120festival", "4277": "\u0120exercise", "4278": "\u0120beet", "4279": "liday", "4280": "adium", "4281": "\u0120waffle", "4282": "\u0120stadium", "4283": "\u0120lions", "4284": "\u0120leak", "4285": "\u0120language", "4286": "\u0120holiday", "4287": "\u0120fireplace", "4288": "\u0120doors", "4289": "\u0120cabinet", "4290": "\u0120Mrs", "4291": "htray", "4292": "Did", "4293": "\u0120twir", "4294": "\u0120spoke", "4295": "\u0120sniffed", "4296": "\u0120sneeze", "4297": "\u0120searching", "4298": "\u0120rules", "4299": "\u0120pleased", "4300": "\u0120monkeys", "4301": "\u0120mint", "4302": "\u0120meowed", "4303": "\u0120men", "4304": "\u0120berry", "4305": "\u0120airport", "4306": "\u0120Zoom", "4307": "\u0120Elly", "4308": "wards", "4309": "med", "4310": "iches", "4311": "Ow", "4312": "Em", "4313": "\u0120traffic", "4314": "\u0120tightly", "4315": "\u0120tip", "4316": "\u0120slap", "4317": "\u0120sandwiches", "4318": "\u0120roared", "4319": "\u0120razor", "4320": "\u0120oats", "4321": "\u0120lemons", "4322": "\u0120lawn", "4323": "\u0120forgave", "4324": "\u0120favour", "4325": "\u0120comfort", "4326": "\u0120Betty", "4327": "ki", "4328": "ince", "4329": "imney", "4330": "iggly", "4331": "chanic", "4332": "\u0120windows", "4333": "\u0120stomach", "4334": "\u0120sticker", "4335": "\u0120slip", "4336": "\u0120separate", "4337": "\u0120sent", "4338": "\u0120plastic", "4339": "\u0120pair", "4340": "\u0120obser", "4341": "\u0120nature", "4342": "\u0120meeting", "4343": "\u0120mechanic", "4344": "\u0120finds", "4345": "\u0120favourite", "4346": "\u0120chimney", "4347": "\u0120caring", "4348": "\u0120cur", "4349": "\u0120boots", "4350": "\u0120ashtray", "4351": "\u0120anyway", "4352": "\u0120agree", "4353": "\u0120Or", "4354": "\u0120Mar", "4355": "sses", "4356": "ement", "4357": "\u0120unite", "4358": "\u0120tomatoes", "4359": "\u0120resist", "4360": "\u0120mixer", "4361": "\u0120lightning", "4362": "\u0120grabs", "4363": "\u0120ener", "4364": "\u0120cows", "4365": "\u0120breat", "4366": "\u0120blueberry", "4367": "\u0120beetle", "4368": "\u0120barking", "4369": "\u0120Jazz", "4370": "year", "4371": "hic", "4372": "\u0120vehic", "4373": "\u0120subway", "4374": "\u0120sport", "4375": "\u0120point", "4376": "\u0120poked", "4377": "\u0120minute", "4378": "\u0120letters", "4379": "\u0120imagine", "4380": "\u0120holes", "4381": "\u0120giraffe", "4382": "\u0120classroom", "4383": "\u0120cards", "4384": "\u0120belongs", "4385": "\u0120Are", "4386": "\u0120Y", "4387": "night", "4388": "la", "4389": "hter", "4390": "book", "4391": "ayak", "4392": "amber", "4393": "\u0120remove", "4394": "\u0120oyster", "4395": "\u0120notebook", "4396": "\u0120mistakes", "4397": "\u0120laughter", "4398": "\u0120kayak", "4399": "\u0120invite", "4400": "\u0120flood", "4401": "\u0120billboard", "4402": "\u0120Sophie", "4403": "\u0120Pippin", "4404": "\u0120Bounce", "4405": "\u0120Big", "4406": "te", "4407": "apa", "4408": "\u0120yield", "4409": "\u0120remain", "4410": "\u0120rac", "4411": "\u0120puddles", "4412": "\u0120oxygen", "4413": "\u0120names", "4414": "\u0120musician", "4415": "\u0120leaned", "4416": "\u0120improve", "4417": "\u0120handed", "4418": "\u0120country", "4419": "\u0120cartoon", "4420": "\u0120Alice", "4421": "chair", "4422": "cast", "4423": "Jimmy", "4424": "\u0120whip", "4425": "\u0120warned", "4426": "\u0120warn", "4427": "\u0120swamp", "4428": "\u0120spoil", "4429": "\u0120sandcast", "4430": "\u0120sudden", "4431": "\u0120size", "4432": "\u0120proudly", "4433": "\u0120problems", "4434": "\u0120glowing", "4435": "\u0120courage", "4436": "\u0120chamber", "4437": "\u0120bookcase", "4438": "\u0120Sandy", "4439": "vice", "4440": "ola", "4441": "lend", "4442": "inarian", "4443": "igi", "4444": "eterinarian", "4445": "eb", "4446": "\u0120wipe", "4447": "\u0120wine", "4448": "\u0120strawberries", "4449": "\u0120sadly", "4450": "\u0120pushes", "4451": "\u0120pulls", "4452": "\u0120lawy", "4453": "\u0120dancer", "4454": "\u0120beep", "4455": "\u0120above", "4456": "\u0120Ru", "4457": "ison", "4458": "\u0120trade", "4459": "\u0120surrender", "4460": "\u0120soil", "4461": "\u0120slippery", "4462": "\u0120sandbox", "4463": "\u0120rescue", "4464": "\u0120panic", "4465": "\u0120pages", "4466": "\u0120navy", "4467": "\u0120frowned", "4468": "\u0120fre", "4469": "\u0120copper", "4470": "\u0120cliff", "4471": "\u0120ceiling", "4472": "\u0120butterflies", "4473": "\u0120appl", "4474": "\u0120Co", "4475": "usie", "4476": "rod", "4477": "emember", "4478": "coli", "4479": "ccoli", "4480": "\u0120veterinarian", "4481": "\u0120tease", "4482": "\u0120rece", "4483": "\u0120planes", "4484": "\u0120page", "4485": "\u0120kneel", "4486": "\u0120kinds", "4487": "\u0120incre", "4488": "\u0120fort", "4489": "\u0120feelings", "4490": "\u0120carrying", "4491": "\u0120armchair", "4492": "\u0120art", "4493": "\u0120Polly", "4494": "\u0120Ow", "4495": "\u0120x", "4496": "gie", "4497": "ecause", "4498": "ebra", "4499": "aud", "4500": "\u0120weapon", "4501": "\u0120stair", "4502": "\u0120repeat", "4503": "\u0120provide", "4504": "\u0120introd", "4505": "\u0120ignore", "4506": "\u0120energy", "4507": "\u0120delay", "4508": "\u0120brightly", "4509": "\u0120believed", "4510": "scope", "4511": "roscope", "4512": "nesday", "4513": "lendar", "4514": "lu", "4515": "ednesday", "4516": "cer", "4517": "anda", "4518": "\u0120waste", "4519": "\u0120tools", "4520": "\u0120somewhere", "4521": "\u0120shakes", "4522": "\u0120regret", "4523": "\u0120prayed", "4524": "\u0120ped", "4525": "\u0120mailman", "4526": "\u0120lid", "4527": "\u0120heat", "4528": "\u0120calendar", "4529": "\u0120Paul", "4530": "olog", "4531": "low", "4532": "imed", "4533": "\u0120zebra", "4534": "\u0120sounded", "4535": "\u0120sandcastle", "4536": "\u0120saving", "4537": "\u0120reminded", "4538": "\u0120older", "4539": "\u0120nobody", "4540": "\u0120meas", "4541": "\u0120lives", "4542": "\u0120keeping", "4543": "\u0120apolog", "4544": "\u0120advice", "4545": "\u0120aw", "4546": "\u0120Where", "4547": "\u0120God", "4548": "itation", "4549": "elcome", "4550": "Your", "4551": "\u0120vehicle", "4552": "\u0120raise", "4553": "\u0120price", "4554": "\u0120mystery", "4555": "\u0120lawyer", "4556": "\u0120freeze", "4557": "\u0120flies", "4558": "\u0120ext", "4559": "\u0120choice", "4560": "\u0120cane", "4561": "\u0120anywhere", "4562": "hest", "4563": "eer", "4564": "\u0120tax", "4565": "\u0120suggested", "4566": "\u0120starts", "4567": "\u0120softly", "4568": "\u0120shouts", "4569": "\u0120shone", "4570": "\u0120rooms", "4571": "\u0120rushed", "4572": "\u0120letting", "4573": "\u0120inclu", "4574": "\u0120imagined", "4575": "\u0120happens", "4576": "\u0120dear", "4577": "\u0120crossed", "4578": "\u0120colourful", "4579": "\u0120chairs", "4580": "\u0120breaks", "4581": "\u0120Su", "4582": "\u0120Grandpa", "4583": "ores", "4584": "ogn", "4585": "lex", "4586": "aurant", "4587": "alley", "4588": "aggie", "4589": "\u0120taxi", "4590": "\u0120squeeze", "4591": "\u0120smells", "4592": "\u0120restaurant", "4593": "\u0120replace", "4594": "\u0120recogn", "4595": "\u0120pitch", "4596": "\u0120excitedly", "4597": "\u0120eaten", "4598": "\u0120chickens", "4599": "\u0120applaud", "4600": "\u0120Wiggly", "4601": "\u0120Papa", "4602": "\u0120Next", "4603": "\u0120Gigi", "4604": "orge", "4605": "indeer", "4606": "eorge", "4607": "apping", "4608": "Next", "4609": "Mary", "4610": "Mark", "4611": "\u0120valley", "4612": "\u0120trem", "4613": "\u0120tub", "4614": "\u0120steam", "4615": "\u0120reindeer", "4616": "\u0120ranch", "4617": "\u0120rained", "4618": "\u0120olive", "4619": "\u0120gain", "4620": "\u0120file", "4621": "\u0120content", "4622": "\u0120broccoli", "4623": "\u0120blowing", "4624": "\u0120Carl", "4625": "arlie", "4626": "\u0120microscope", "4627": "\u0120extra", "4628": "\u0120ended", "4629": "\u0120equ", "4630": "\u0120dishes", "4631": "\u0120Would", "4632": "\u0120Wednesday", "4633": "\u0120Ste", "4634": "\u0120V", "4635": "utor", "4636": "na", "4637": "ero", "4638": "ected", "4639": "Yuck", "4640": "Yay", "4641": "\u0120tornado", "4642": "\u0120spade", "4643": "\u0120sneezed", "4644": "\u0120reve", "4645": "\u0120prepare", "4646": "\u0120mass", "4647": "\u0120hung", "4648": "\u0120fresh", "4649": "\u0120event", "4650": "\u0120delighted", "4651": "\u0120dare", "4652": "\u0120chewed", "4653": "\u0120bouncing", "4654": "\u0120blueberries", "4655": "\u0120barks", "4656": "vet", "4657": "tain", "4658": "ggy", "4659": "Will", "4660": "Daisy", "4661": "\u0120tutor", "4662": "\u0120settle", "4663": "\u0120scold", "4664": "\u0120riding", "4665": "\u0120poison", "4666": "\u0120myself", "4667": "\u0120hoping", "4668": "\u0120heads", "4669": "\u0120gro", "4670": "\u0120chance", "4671": "\u0120argue", "4672": "\u0120Fl", "4673": "illie", "4674": "acation", "4675": "Ready", "4676": "\u0120vacation", "4677": "\u0120shrugged", "4678": "\u0120quiz", "4679": "\u0120opera", "4680": "\u0120Freddy", "4681": "\u0120Binky", "4682": "ipment", "4683": "cuss", "4684": "asis", "4685": "Qu", "4686": "\u0120weather", "4687": "\u0120skill", "4688": "\u0120shivering", "4689": "\u0120seas", "4690": "\u0120suff", "4691": "\u0120prints", "4692": "\u0120missing", "4693": "\u0120giggle", "4694": "\u0120float", "4695": "\u0120evening", "4696": "\u0120equipment", "4697": "\u0120enter", "4698": "\u0120discuss", "4699": "\u0120chores", "4700": "\u0120burned", "4701": "\u0120bend", "4702": "\u0120baking", "4703": "\u0120Spark", "4704": "\u0120End", "4705": "ucture", "4706": "noon", "4707": "acked", "4708": "\u0120thanks", "4709": "\u0120structure", "4710": "\u0120sty", "4711": "\u0120reveal", "4712": "\u0120pushing", "4713": "\u0120prune", "4714": "\u0120oasis", "4715": "\u0120mention", "4716": "\u0120invitation", "4717": "\u0120fixing", "4718": "\u0120afternoon", "4719": "ky", "4720": "inking", "4721": "heart", "4722": "\u0120yawned", "4723": "\u0120writing", "4724": "\u0120trusted", "4725": "\u0120throws", "4726": "\u0120throwing", "4727": "\u0120spots", "4728": "\u0120socks", "4729": "\u0120puzzles", "4730": "\u0120placed", "4731": "\u0120perfume", "4732": "\u0120hills", "4733": "\u0120grand", "4734": "\u0120dem", "4735": "\u0120bumped", "4736": "\u0120Under", "4737": "\u0120Lilly", "4738": "sity", "4739": "otten", "4740": "ana", "4741": "Ann", "4742": "\u0120tracks", "4743": "\u0120parts", "4744": "\u0120mall", "4745": "\u0120luck", "4746": "\u0120insisted", "4747": "\u0120coats", "4748": "\u0120captain", "4749": "\u0120below", "4750": "\u0120beans", "4751": "\u0120Mike", "4752": "queaky", "4753": "happy", "4754": "ef", "4755": "Ch", "4756": "Buddy", "4757": "\",", "4758": "\u0120sweetheart", "4759": "\u0120sticky", "4760": "\u0120shower", "4761": "\u0120shoulder", "4762": "\u0120sew", "4763": "\u0120sigh", "4764": "\u0120printed", "4765": "\u0120pastel", "4766": "\u0120following", "4767": "\u0120claw", "4768": "\u0120cared", "4769": "\u0120brighter", "4770": "\u0120Me", "4771": "va", "4772": "peedy", "4773": "omm", "4774": "ommend", "4775": "Not", "4776": "All", "4777": "\u0120unhappy", "4778": "\u0120teaching", "4779": "\u0120recommend", "4780": "\u0120punish", "4781": "\u0120panda", "4782": "\u0120impressed", "4783": "\u0120greedy", "4784": "\u0120expect", "4785": "\u0120Un", "4786": "\u0120Bow", "4787": "uggage", "4788": "look", "4789": "iform", "4790": "ations", "4791": "\u0120uniform", "4792": "\u0120exper", "4793": "\u0120deeper", "4794": "\u0120candles", "4795": "\u0120beg", "4796": "\u0120Ro", "4797": "\u0120Hoppy", "4798": "\u0120Have", "4799": "nce", "4800": "lp", "4801": "enry", "4802": "Jenny", "4803": "Daddy", "4804": "Before", "4805": "\u0120yucky", "4806": "\u0120weight", "4807": "\u0120tour", "4808": "\u0120sprayed", "4809": "\u0120splashing", "4810": "\u0120sparkled", "4811": "\u0120score", "4812": "\u0120luggage", "4813": "\u0120hen", "4814": "\u0120easily", "4815": "\u0120cub", "4816": "\u0120clapping", "4817": "\u0120Penny", "4818": "\u0120Eventually", "4819": "\u0120Che", "4820": "looking", "4821": "ittens", "4822": "arnt", "4823": "Surpr", "4824": "\u0120whisper", "4825": "\u0120steel", "4826": "\u0120sir", "4827": "\u0120racing", "4828": "\u0120lemonade", "4829": "\u0120learnt", "4830": "\u0120ignored", "4831": "\u0120follows", "4832": "\u0120destroyed", "4833": "\u0120checked", "4834": "\u0120Help", "4835": "urnit", "4836": "urniture", "4837": "ucked", "4838": "riage", "4839": "hood", "4840": "ecting", "4841": "cond", "4842": "ari", "4843": "anges", "4844": "Mimi", "4845": "\u0120worms", "4846": "\u0120wigg", "4847": "\u0120vanished", "4848": "\u0120upstairs", "4849": "\u0120tremble", "4850": "\u0120spr", "4851": "\u0120selling", "4852": "\u0120second", "4853": "\u0120scattered", "4854": "\u0120permit", "4855": "\u0120fro", "4856": "\u0120furniture", "4857": "\u0120cheek", "4858": "\u0120chirp", "4859": "\u0120buried", "4860": "\u0120Whenever", "4861": "\u0120Susie", "4862": "\u0120Olive", "4863": "ween", "4864": "uct", "4865": "reek", "4866": "iki", "4867": "ents", "4868": "Welcome", "4869": "\u0120whistled", "4870": "\u0120vroom", "4871": "\u0120streng", "4872": "\u0120sorting", "4873": "\u0120reef", "4874": "\u0120jogged", "4875": "\u0120jail", "4876": "\u0120entered", "4877": "\u0120demand", "4878": "\u0120creek", "4879": "\u0120between", "4880": "\u0120badly", "4881": "\u0120Snowy", "4882": "\u0120Is", "4883": "redient", "4884": "laimed", "4885": "ingredient", "4886": "ides", "4887": "ecture", "4888": "\u0120wre", "4889": "\u0120thumb", "4890": "\u0120supply", "4891": "\u0120style", "4892": "\u0120rush", "4893": "\u0120quite", "4894": "\u0120points", "4895": "\u0120paid", "4896": "\u0120massage", "4897": "\u0120marble", "4898": "\u0120lecture", "4899": "\u0120hopes", "4900": "\u0120exclaimed", "4901": "\u0120counter", "4902": "\u0120claws", "4903": "\u0120bricks", "4904": "\u0120Froggy", "4905": "\u0120ingredient", "4906": "\u0120\u010a", "4907": "izes", "4908": "Surprise", "4909": "\u0120strength", "4910": "\u0120seats", "4911": "\u0120scratch", "4912": "\u0120row", "4913": "\u0120petals", "4914": "\u0120port", "4915": "\u0120neighbour", "4916": "\u0120hurting", "4917": "\u0120grant", "4918": "\u0120cutting", "4919": "\u0120climbs", "4920": "\u0120breathe", "4921": "\u0120bother", "4922": "\u0120Squeaky", "4923": "\u0120Pr", "4924": "ges", "4925": "These", "4926": "Alice", "4927": "\u0120\u00e2\u0122\u0135", "4928": "\u0120tug", "4929": "\u0120shopkeeper", "4930": "\u0120raining", "4931": "\u0120putting", "4932": "\u0120menu", "4933": "\u0120marriage", "4934": "\u0120cakes", "4935": "\u0120bears", "4936": "\u0120allow", "4937": "\u0120Who", "4938": "\u0120Speedy", "4939": "\u0120Sm", "4940": "\u0120Mittens", "4941": "urther", "4942": "resses", "4943": "\u0120works", "4944": "\u0120wags", "4945": "\u0120waving", "4946": "\u0120starting", "4947": "\u0120snail", "4948": "\u0120printer", "4949": "\u0120pigs", "4950": "\u0120ingredients", "4951": "\u0120heel", "4952": "\u0120forgotten", "4953": "\u0120explored", "4954": "\u0120agre", "4955": "\u0120admired", "4956": "\u0120Lola", "4957": "\u0120Grace", "4958": "\u0120Alex", "4959": "right", "4960": "ecially", "4961": "Grandma", "4962": "Because", "4963": "\u0120wreck", "4964": "\u0120washing", "4965": "\u0120soc", "4966": "\u0120shined", "4967": "\u0120scoop", "4968": "\u0120sailing", "4969": "\u0120plates", "4970": "\u0120observe", "4971": "\u0120jogging", "4972": "\u0120introduce", "4973": "\u0120hon", "4974": "\u0120fallen", "4975": "\u0120further", "4976": "\u0120eagerly", "4977": "\u0120drops", "4978": "\u0120difference", "4979": "\u0120daisy", "4980": "\u0120balan", "4981": "\u0120apart", "4982": "\u0120Finn", "4983": "thank", "4984": "specially", "4985": "atched", "4986": "\u0120tuna", "4987": "\u0120strike", "4988": "\u0120soccer", "4989": "\u0120pup", "4990": "\u0120floated", "4991": "\u0120during", "4992": "\u0120blood", "4993": "\u0120acted", "4994": "\u0120Sharing", "4995": "\u0120Maggie", "4996": "reat", "4997": "icer", "4998": "eration", "4999": "\u0120yawn", "5000": "\u0120worth", "5001": "\u0120warning", "5002": "\u0120wandered", "5003": "\u0120tong", "5004": "\u0120studied", "5005": "\u0120rul", "5006": "\u0120plays", "5007": "\u0120planted", "5008": "\u0120moves", "5009": "\u0120increase", "5010": "\u0120horses", "5011": "\u0120highest", "5012": "\u0120folded", "5013": "\u0120flapped", "5014": "\u0120especially", "5015": "\u0120buzz", "5016": "\u0120beauty", "5017": "\u0120Tilly", "5018": "\u0120Remember", "5019": "\u0120Nana", "5020": "uesday", "5021": "shed", "5022": "reeze", "5023": "quest", "5024": "quake", "5025": "Bl", "5026": "Bella", "5027": "..", "5028": "\u0120watered", "5029": "\u0120urge", "5030": "\u0120shouting", "5031": "\u0120reaches", "5032": "\u0120presents", "5033": "\u0120oh", "5034": "\u0120kingdom", "5035": "\u0120given", "5036": "\u0120famil", "5037": "\u0120examine", "5038": "\u0120conf", "5039": "\u0120Tuesday", "5040": "\u0120Owl", "5041": "\u0120Lizzy", "5042": "\u0120Kiki", "5043": "\u0120Everything", "5044": "unately", "5045": "raged", "5046": "medi", "5047": "mediately", "5048": "men", "5049": "bor", "5050": "Fred", "5051": "Ella", "5052": "\u0120university", "5053": "\u0120twisted", "5054": "\u0120sorts", "5055": "\u0120solved", "5056": "\u0120soak", "5057": "\u0120snapped", "5058": "\u0120slapped", "5059": "\u0120scolded", "5060": "\u0120quietly", "5061": "\u0120lands", "5062": "\u0120harbor", "5063": "\u0120gifts", "5064": "\u0120elephants", "5065": "\u0120earthquake", "5066": "\u0120dressed", "5067": "\u0120brings", "5068": "\u0120bak", "5069": "\u0120See", "5070": "\u0120Coco", "5071": "\u0120Charlie", "5072": "omeday", "5073": "Leo", "5074": "\u0120zigzag", "5075": "\u0120zero", "5076": "\u0120tongue", "5077": "\u0120snugg", "5078": "\u0120sits", "5079": "\u0120request", "5080": "\u0120pur", "5081": "\u0120inst", "5082": "\u0120hearts", "5083": "\u0120hadn", "5084": "\u0120experience", "5085": "\u0120curled", "5086": "\u0120crash", "5087": "\u0120Milly", "5088": "\u0120Dave", "5089": "sterday", "5090": "sed", "5091": "pted", "5092": "isses", "5093": "esterday", "5094": "Everyone", "5095": "Emma", "5096": "\u0120wisdom", "5097": "\u0120west", "5098": "\u0120trave", "5099": "\u0120sliding", "5100": "\u0120planned", "5101": "\u0120oranges", "5102": "\u0120operation", "5103": "\u0120memory", "5104": "\u0120mister", "5105": "\u0120kisses", "5106": "\u0120image", "5107": "\u0120comf", "5108": "\u0120Le", "5109": "\u0120Kate", "5110": "\u0120Bubbles", "5111": "rise", "5112": "ipping", "5113": "eath", "5114": "do", "5115": "\u0120worse", "5116": "\u0120tide", "5117": "\u0120stuffed", "5118": "\u0120squeezed", "5119": "\u0120skills", "5120": "\u0120someday", "5121": "\u0120sizes", "5122": "\u0120ruler", "5123": "\u0120prett", "5124": "\u0120paused", "5125": "\u0120licks", "5126": "\u0120fields", "5127": "\u0120bouncy", "5128": "\u0120attached", "5129": "\u0120Ruby", "5130": "\u0120Good", "5131": "\u0120Finny", "5132": "ories", "5133": "mm", "5134": "atie", "5135": "aded", "5136": "Woof", "5137": "'ve", "5138": "\u0120suffer", "5139": "\u0120sorted", "5140": "\u0120shot", "5141": "\u0120since", "5142": "\u0120release", "5143": "\u0120pulling", "5144": "\u0120manage", "5145": "\u0120mama", "5146": "\u0120imagination", "5147": "\u0120ideas", "5148": "\u0120encourage", "5149": "\u0120colours", "5150": "\u0120catching", "5151": "\u0120cape", "5152": "\u0120appear", "5153": "\u0120accepted", "5154": "\u0120Abby", "5155": "Today", "5156": "Ha", "5157": "\u0120zookeeper", "5158": "\u0120welcomed", "5159": "\u0120twirled", "5160": "\u0120tonight", "5161": "\u0120pearl", "5162": "\u0120peaches", "5163": "\u0120news", "5164": "\u0120measured", "5165": "\u0120mice", "5166": "\u0120immediately", "5167": "\u0120dried", "5168": "\u0120blankets", "5169": "\u0120bones", "5170": "\u0120attention", "5171": "\u0120Toto", "5172": "\u0120Rock", "5173": "\u0120Bop", "5174": "yth", "5175": "sters", "5176": "indy", "5177": "ippy", "5178": "house", "5179": "ction", "5180": "With", "5181": "\u0120whistling", "5182": "\u0120wagging", "5183": "\u0120tucked", "5184": "\u0120sunrise", "5185": "\u0120spike", "5186": "\u0120settled", "5187": "\u0120season", "5188": "\u0120rabbits", "5189": "\u0120peanuts", "5190": "\u0120melted", "5191": "\u0120leather", "5192": "\u0120growled", "5193": "\u0120closely", "5194": "\u0120celebrated", "5195": "\u0120calls", "5196": "\u0120Sky", "5197": "\u0120Ros", "5198": "\u0120Pip", "5199": "\u0120Millie", "5200": "\u0120George", "5201": "\u0120Before", "5202": "\u0120Bee", "5203": "ups", "5204": "ored", "5205": "ips", "5206": "etch", "5207": "cery", "5208": "Remy", "5209": "\u0120winning", "5210": "\u0120tastes", "5211": "\u0120stealing", "5212": "\u0120si", "5213": "\u0120remained", "5214": "\u0120recognize", "5215": "\u0120receive", "5216": "\u0120quack", "5217": "\u0120ours", "5218": "\u0120married", "5219": "\u0120grocery", "5220": "\u0120glo", "5221": "\u0120fireman", "5222": "\u0120downstairs", "5223": "\u0120disagreed", "5224": "\u0120dresses", "5225": "\u0120ble", "5226": "\u0120Zara", "5227": "\u0120Mo", "5228": "\u0120Ho", "5229": "walk", "5230": "unday", "5231": "rank", "5232": "ising", "5233": "fortunately", "5234": "Blue", "5235": "\u0120zipped", "5236": "\u0120wooden", "5237": "\u0120understanding", "5238": "\u0120tremb", "5239": "\u0120tore", "5240": "\u0120toes", "5241": "\u0120surround", "5242": "\u0120stro", "5243": "\u0120stirring", "5244": "\u0120soaked", "5245": "\u0120snuggled", "5246": "\u0120sidewalk", "5247": "\u0120shed", "5248": "\u0120safari", "5249": "\u0120punished", "5250": "\u0120palm", "5251": "\u0120memories", "5252": "\u0120lips", "5253": "\u0120inf", "5254": "\u0120gloves", "5255": "\u0120emer", "5256": "\u0120easier", "5257": "\u0120bang", "5258": "\u0120Wally", "5259": "\u0120Steve", "5260": "\u0120Sunday", "5261": "\u0120Pat", "5262": "\u0120Hope", "5263": "\u0120Clara", "5264": "ythm", "5265": "icky", "5266": "icing", "5267": "ddy", "5268": "ding", "5269": "Bird", "5270": "\u0120universe", "5271": "\u0120straight", "5272": "\u0120snowball", "5273": "\u0120seeing", "5274": "\u0120rang", "5275": "\u0120potatoes", "5276": "\u0120isn", "5277": "\u0120hits", "5278": "\u0120encouraged", "5279": "\u0120creatures", "5280": "\u0120collection", "5281": "\u0120breaking", "5282": "\u0120backpack", "5283": "\u0120baked", "5284": "\u0120Red", "5285": "\u0120Fox", "5286": "\u0120Danny", "5287": "rr", "5288": "ops", "5289": "ien", "5290": "Peter", "5291": "Ok", "5292": "\u0120trembling", "5293": "\u0120ringing", "5294": "\u0120raised", "5295": "\u0120pirates", "5296": "\u0120pedal", "5297": "\u0120offer", "5298": "\u0120lung", "5299": "\u0120grin", "5300": "\u0120gazed", "5301": "\u0120floating", "5302": "\u0120flap", "5303": "\u0120acorns", "5304": "\u0120Suzy", "5305": "\u0120Smith", "5306": "\u0120Ray", "5307": "\u0120Jess", "5308": "\u0120Henry", "5309": "\u0120Ava", "5310": "sing", "5311": "ites", "5312": "isdom", "5313": "eep", "5314": "bles", "5315": "aped", "5316": "abies", "5317": "Lisa", "5318": "\u0120waits", "5319": "\u0120wob", "5320": "\u0120unlocked", "5321": "\u0120spit", "5322": "\u0120shouldn", "5323": "\u0120shopping", "5324": "\u0120relaxed", "5325": "\u0120pebbles", "5326": "\u0120pad", "5327": "\u0120muscles", "5328": "\u0120landsc", "5329": "\u0120kites", "5330": "\u0120kicking", "5331": "\u0120include", "5332": "\u0120hers", "5333": "\u0120flat", "5334": "\u0120fireworks", "5335": "\u0120firef", "5336": "\u0120crawling", "5337": "\u0120brus", "5338": "\u0120bites", "5339": "\u0120babies", "5340": "\u0120alright", "5341": "\u0120Each", "5342": "\u0120Baby", "5343": "orted", "5344": "igging", "5345": "icorn", "5346": "Would", "5347": "\u0120web", "5348": "\u0120watches", "5349": "\u0120unicorn", "5350": "\u0120simp", "5351": "\u0120families", "5352": "\u0120dared", "5353": "\u0120brain", "5354": "\u0120bleed", "5355": "\u0120appro", "5356": "\u0120Zigzag", "5357": "\u0120Robby", "5358": "\u0120Mandy", "5359": "\u0120Follow", "5360": "ther", "5361": "kins", "5362": "ids", "5363": "ety", "5364": "allen", "5365": "Momo", "5366": "\u0120visited", "5367": "\u0120tallest", "5368": "\u0120sneak", "5369": "\u0120shadows", "5370": "\u0120safety", "5371": "\u0120resting", "5372": "\u0120petted", "5373": "\u0120opin", "5374": "\u0120mouths", "5375": "\u0120matched", "5376": "\u0120kneeled", "5377": "\u0120keeps", "5378": "\u0120kitty", "5379": "\u0120instr", "5380": "\u0120girls", "5381": "\u0120exit", "5382": "\u0120drinking", "5383": "\u0120digging", "5384": "\u0120chewing", "5385": "\u0120challen", "5386": "\u0120beds", "5387": "\u0120breeze", "5388": "\u0120Sun", "5389": "\u0120Rosie", "5390": "\u0120James", "5391": "umes", "5392": "uzz", "5393": "rec", "5394": "lvet", "5395": "ler", "5396": "ishy", "5397": "ishing", "5398": "elle", "5399": "\u0120weeping", "5400": "\u0120weighed", "5401": "\u0120velvet", "5402": "\u0120vet", "5403": "\u0120underground", "5404": "\u0120studying", "5405": "\u0120stitch", "5406": "\u0120silence", "5407": "\u0120served", "5408": "\u0120playtime", "5409": "\u0120piles", "5410": "\u0120ordered", "5411": "\u0120none", "5412": "\u0120muddy", "5413": "\u0120laid", "5414": "\u0120lined", "5415": "\u0120disagree", "5416": "\u0120cartoons", "5417": "\u0120amazement", "5418": "\u0120Zoe", "5419": "\u0120These", "5420": "\u0120Slow", "5421": "\u0120Maria", "5422": "\u0120Mel", "5423": "\u0120King", "5424": "reci", "5425": "oral", "5426": "chie", "5427": "avid", "5428": "Tr", "5429": "!\",", "5430": "!'", "5431": "\u0120winner", "5432": "\u0120vanish", "5433": "\u0120twink", "5434": "\u0120treasures", "5435": "\u0120spoons", "5436": "\u0120signs", "5437": "\u0120setting", "5438": "\u0120roots", "5439": "\u0120roads", "5440": "\u0120repeated", "5441": "\u0120nowhere", "5442": "\u0120napping", "5443": "\u0120mixing", "5444": "\u0120lick", "5445": "\u0120landscape", "5446": "\u0120gust", "5447": "\u0120crunch", "5448": "\u0120costumes", "5449": "\u0120bye", "5450": "\u0120appreci", "5451": "\u0120Something", "5452": "\u0120Not", "5453": "\u0120Lucky", "5454": "rs", "5455": "oved", "5456": "izing", "5457": "coon", "5458": "aved", "5459": "Yum", "5460": "Thanks", "5461": "Johnny", "5462": "Bobby", "5463": ".'", "5464": "\u0120voices", "5465": "\u0120urged", "5466": "\u0120strang", "5467": "\u0120sisters", "5468": "\u0120sausages", "5469": "\u0120six", "5470": "\u0120sip", "5471": "\u0120rhythm", "5472": "\u0120pinched", "5473": "\u0120pets", "5474": "\u0120perfectly", "5475": "\u0120jazz", "5476": "\u0120importance", "5477": "\u0120happiest", "5478": "\u0120emergen", "5479": "\u0120decorations", "5480": "\u0120decorated", "5481": "\u0120Wisdom", "5482": "\u0120Tony", "5483": "\u0120Later", "5484": "\u0120Bouncy", "5485": "\u0120Bree", "5486": "\u0120Qu", "5487": "umble", "5488": "shion", "5489": "oys", "5490": "Sp", "5491": "\u0120waist", "5492": "\u0120wink", "5493": "\u0120result", "5494": "\u0120prepared", "5495": "\u0120patterns", "5496": "\u0120pra", "5497": "\u0120mentioned", "5498": "\u0120lets", "5499": "\u0120lily", "5500": "\u0120knights", "5501": "\u0120infant", "5502": "\u0120guessed", "5503": "\u0120fashion", "5504": "\u0120draws", "5505": "\u0120dire", "5506": "\u0120clearing", "5507": "\u0120agreement", "5508": "\u0120Ted", "5509": "\u0120Peanut", "5510": "\u0120Out", "5511": "\u0120Harry", "5512": "ssible", "5513": "plash", "5514": "oming", "5515": "isten", "5516": "irts", "5517": "iers", "5518": "hello", "5519": "ena", "5520": "Sammy", "5521": "Happy", "5522": "Dog", "5523": "\u0120waffles", "5524": "\u0120turning", "5525": "\u0120thrill", "5526": "\u0120strangers", "5527": "\u0120sprink", "5528": "\u0120scru", "5529": "\u0120poems", "5530": "\u0120phot", "5531": "\u0120ourselves", "5532": "\u0120noon", "5533": "\u0120moments", "5534": "\u0120marks", "5535": "\u0120known", "5536": "\u0120hurried", "5537": "\u0120escaped", "5538": "\u0120eagle", "5539": "\u0120crunchy", "5540": "\u0120beard", "5541": "\u0120admir", "5542": "\u0120Liz", "5543": "\u0120Frank", "5544": "\u0120Both", "5545": "zen", "5546": "ship", "5547": "please", "5548": "ities", "5549": "antly", "5550": "Sophie", "5551": "Moral", "5552": "Jen", "5553": "Emily", "5554": "\u0120spending", "5555": "\u0120soldiers", "5556": "\u0120ruin", "5557": "\u0120ripped", "5558": "\u0120pillows", "5559": "\u0120peel", "5560": "\u0120logs", "5561": "\u0120limes", "5562": "\u0120grinned", "5563": "\u0120gran", "5564": "\u0120goals", "5565": "\u0120frozen", "5566": "\u0120forgi", "5567": "\u0120fetch", "5568": "\u0120expected", "5569": "\u0120disturbed", "5570": "\u0120cuddled", "5571": "\u0120crashed", "5572": "\u0120bravely", "5573": "\u0120brid", "5574": "\u0120bowed", "5575": "\u0120behaved", "5576": "\u0120apologized", "5577": "\u0120Watch", "5578": "\u0120Prin", "5579": "\u0120Car", "5580": "vest", "5581": "uddles", "5582": "tory", "5583": "ishes", "5584": "ived", "5585": "ded", "5586": "acob", "5587": "Cat", "5588": "\u0120struggle", "5589": "\u0120photos", "5590": "\u0120matching", "5591": "\u0120lines", "5592": "\u0120knelt", "5593": "\u0120history", "5594": "\u0120guy", "5595": "\u0120gained", "5596": "\u0120fishing", "5597": "\u0120emergency", "5598": "\u0120dads", "5599": "\u0120collecting", "5600": "\u0120beneath", "5601": "\u0120Joey", "5602": "\u0120Did", "5603": "\u0120Cuddles", "5604": "xture", "5605": "ud", "5606": "omas", "5607": "ctly", "5608": "choo", "5609": "arth", "5610": "Watch", "5611": "Goodbye", "5612": "\u0120wondering", "5613": "\u0120warmth", "5614": "\u0120trapped", "5615": "\u0120texture", "5616": "\u0120sore", "5617": "\u0120soared", "5618": "\u0120slice", "5619": "\u0120skipping", "5620": "\u0120rested", "5621": "\u0120resp", "5622": "\u0120pies", "5623": "\u0120meow", "5624": "\u0120item", "5625": "\u0120hes", "5626": "\u0120drinks", "5627": "\u0120dragons", "5628": "\u0120collected", "5629": "\u0120challenge", "5630": "\u0120burning", "5631": "\u0120buildings", "5632": "\u0120bridges", "5633": "\u0120begged", "5634": "\u0120beat", "5635": "\u0120answers", "5636": "\u0120Rocky", "5637": "\u0120Josh", "5638": "\u0120Its", "5639": "\u0120Hop", "5640": "ales", "5641": "Ducky", "5642": "Andy", "5643": "\u0120wiggle", "5644": "\u0120threat", "5645": "\u0120stamps", "5646": "\u0120simple", "5647": "\u0120screams", "5648": "\u0120scratched", "5649": "\u0120scaring", "5650": "\u0120praised", "5651": "\u0120opinion", "5652": "\u0120lied", "5653": "\u0120kindly", "5654": "\u0120crabs", "5655": "\u0120approached", "5656": "\u0120ago", "5657": "\u0120Sof", "5658": "\u0120Happy", "5659": "\u0120Bug", "5660": "\u0120Bo", "5661": "utter", "5662": "ury", "5663": "iti", "5664": "ica", "5665": "hind", "5666": "emb", "5667": "bug", "5668": "akes", "5669": "Miss", "5670": "\u0120wonders", "5671": "\u0120twigs", "5672": "\u0120theirs", "5673": "\u0120teasing", "5674": "\u0120sparkling", "5675": "\u0120scrubbed", "5676": "\u0120olives", "5677": "\u0120neighborhood", "5678": "\u0120ladybug", "5679": "\u0120golden", "5680": "\u0120gathering", "5681": "\u0120east", "5682": "\u0120comfy", "5683": "\u0120brushed", "5684": "\u0120boom", "5685": "\u0120blink", "5686": "\u0120Stop", "5687": "\u0120Stitch", "5688": "\u0120Katie", "5689": "zing", "5690": "vestig", "5691": "mare", "5692": "lier", "5693": "ino", "5694": "embers", "5695": "bbing", "5696": "Really", "5697": "Eventually", "5698": "Benny", "5699": "\u0120teaches", "5700": "\u0120tim", "5701": "\u0120strings", "5702": "\u0120sting", "5703": "\u0120slim", "5704": "\u0120shoulders", "5705": "\u0120ropes", "5706": "\u0120remembers", "5707": "\u0120nightmare", "5708": "\u0120muffins", "5709": "\u0120joking", "5710": "\u0120investig", "5711": "\u0120herbs", "5712": "\u0120granted", "5713": "\u0120gaze", "5714": "\u0120fed", "5715": "\u0120eff", "5716": "\u0120copy", "5717": "\u0120broom", "5718": "\u0120beamed", "5719": "\u0120ann", "5720": "\u0120Lou", "5721": "\u0120Dare", "5722": "\u0120Catty", "5723": "\u0120Being", "5724": "wh", "5725": "urry", "5726": "uest", "5727": "riends", "5728": "osed", "5729": "ogo", "5730": "anny", "5731": "ados", "5732": "Sandy", "5733": "Poppy", "5734": "Mmm", "5735": "\u0120zooming", "5736": "\u0120writes", "5737": "\u0120twin", "5738": "\u0120trips", "5739": "\u0120thrilled", "5740": "\u0120swims", "5741": "\u0120sparkle", "5742": "\u0120sneaked", "5743": "\u0120slimy", "5744": "\u0120shock", "5745": "\u0120roaring", "5746": "\u0120refu", "5747": "\u0120recorded", "5748": "\u0120received", "5749": "\u0120pencils", "5750": "\u0120pedals", "5751": "\u0120parties", "5752": "\u0120marching", "5753": "\u0120loose", "5754": "\u0120investigate", "5755": "\u0120hissed", "5756": "\u0120headed", "5757": "\u0120hardly", "5758": "\u0120grey", "5759": "\u0120glowed", "5760": "\u0120eats", "5761": "\u0120doggy", "5762": "\u0120dot", "5763": "\u0120cubes", "5764": "\u0120created", "5765": "\u0120brushes", "5766": "\u0120avocados", "5767": "\u0120argued", "5768": "\u0120alien", "5769": "\u0120airpl", "5770": "\u0120activ", "5771": "\u0120awe", "5772": "\u0120Sparky", "5773": "\u0120Someone", "5774": "\u0120Pinky", "5775": "\u0120Missile", "5776": "\u0120May", "5777": "\u0120Izzy", "5778": "\u0120Henny", "5779": "\u0120Always", "5780": "xury", "5781": "ulie", "5782": "uxury", "5783": "uke", "5784": "ppers", "5785": "mother", "5786": "iam", "5787": "elvet", "5788": "araway", "5789": "allow", "5790": "ah", "5791": "Un", "5792": "\u0120\u00e2\u0122\u013a", "5793": "\u0120youth", "5794": "\u0120wears", "5795": "\u0120wed", "5796": "\u0120traveled", "5797": "\u0120tugged", "5798": "\u0120sweeties", "5799": "\u0120supposed", "5800": "\u0120students", "5801": "\u0120stretching", "5802": "\u0120sticking", "5803": "\u0120steep", "5804": "\u0120screaming", "5805": "\u0120removed", "5806": "\u0120remote", "5807": "\u0120radishes", "5808": "\u0120pots", "5809": "\u0120nicer", "5810": "\u0120mountains", "5811": "\u0120melting", "5812": "\u0120marbles", "5813": "\u0120master", "5814": "\u0120loving", "5815": "\u0120leader", "5816": "\u0120keeper", "5817": "\u0120jewels", "5818": "\u0120inch", "5819": "\u0120healed", "5820": "\u0120guest", "5821": "\u0120faraway", "5822": "\u0120effort", "5823": "\u0120destination", "5824": "\u0120decides", "5825": "\u0120chirped", "5826": "\u0120cheering", "5827": "\u0120crow", "5828": "\u0120balancing", "5829": "\u0120area", "5830": "\u0120Tw", "5831": "\u0120Titi", "5832": "\u0120Squ", "5833": "\u0120Splash", "5834": "\u0120First", "5835": "\u0120Dodo", "5836": "\u0120Cindy", "5837": "\u0120Annie", "5838": "\u00e2\u0122\u013f.", "5839": "osity", "5840": "loe", "5841": "ission", "5842": "hee", "5843": "True", "5844": "Time", "5845": "Shh", "5846": "Ollie", "5847": "James", "5848": "Cl", "5849": "\u0120yelling", "5850": "\u0120tricked", "5851": "\u0120stripes", "5852": "\u0120snakes", "5853": "\u0120sled", "5854": "\u0120situ", "5855": "\u0120revealed", "5856": "\u0120realize", "5857": "\u0120praying", "5858": "\u0120prop", "5859": "\u0120polished", "5860": "\u0120owned", "5861": "\u0120monsters", "5862": "\u0120hated", "5863": "\u0120hitting", "5864": "\u0120deser", "5865": "\u0120delivered", "5866": "\u0120claps", "5867": "\u0120cough", "5868": "\u0120buckets", "5869": "\u0120Sad", "5870": "\u0120Moon", "5871": "\u0120Mon", "5872": "\u0120Cra", "5873": "\u0120Yes", "5874": "jam", "5875": "boo", "5876": "aws", "5877": "avi", "5878": "agull", "5879": "affes", "5880": "Ex", "5881": "Boo", "5882": "\u0120wherever", "5883": "\u0120tickle", "5884": "\u0120talent", "5885": "\u0120staying", "5886": "\u0120seems", "5887": "\u0120secrets", "5888": "\u0120seagull", "5889": "\u0120safer", "5890": "\u0120provided", "5891": "\u0120permission", "5892": "\u0120parked", "5893": "\u0120opening", "5894": "\u0120measuring", "5895": "\u0120mane", "5896": "\u0120luxury", "5897": "\u0120giraffes", "5898": "\u0120frost", "5899": "\u0120fears", "5900": "\u0120faced", "5901": "\u0120earlier", "5902": "\u0120cuts", "5903": "\u0120continue", "5904": "\u0120complaining", "5905": "\u0120crew", "5906": "\u0120beside", "5907": "\u0120bakery", "5908": "\u0120Velvet", "5909": "\u0120Tuna", "5910": "\u0120Jacob", "5911": "\u0120Chicky", "5912": "\u0120Boo", "5913": "\u0120An", "5914": "\u0120Once", "5915": "\u01201", "5916": "usty", "5917": "ues", "5918": "mies", "5919": "isty", "5920": "int", "5921": "ifi", "5922": "ha", "5923": "esome", "5924": "cus", "5925": "anging", "5926": "Rob", "5927": "Ro", "5928": "Rex", "5929": "Meow", "5930": "'.", "5931": "\u0120windy", "5932": "\u0120touching", "5933": "\u0120tails", "5934": "\u0120sweat", "5935": "\u0120struggled", "5936": "\u0120shooting", "5937": "\u0120rule", "5938": "\u0120refuse", "5939": "\u0120rele", "5940": "\u0120pupil", "5941": "\u0120proper", "5942": "\u0120pans", "5943": "\u0120paints", "5944": "\u0120magnets", "5945": "\u0120horns", "5946": "\u0120heroes", "5947": "\u0120feeding", "5948": "\u0120dusty", "5949": "\u0120discovery", "5950": "\u0120darker", "5951": "\u0120candies", "5952": "\u0120bleeding", "5953": "\u0120bare", "5954": "\u0120awesome", "5955": "\u0120admiring", "5956": "\u0120actually", "5957": "\u0120actions", "5958": "\u0120acting", "5959": "\u0120Earth", "5960": "\u0120Duck", "5961": "\u0120David", "5962": "uckily", "5963": "quid", "5964": "pie", "5965": "ouch", "5966": "ora", "5967": "ners", "5968": "ls", "5969": "iar", "5970": "dies", "5971": "anta", "5972": "aster", "5973": "Stay", "5974": "Jo", "5975": "\u0120weeks", "5976": "\u0120wedding", "5977": "\u0120wasted", "5978": "\u0120wanting", "5979": "\u0120wiz", "5980": "\u0120valued", "5981": "\u0120vict", "5982": "\u0120twisty", "5983": "\u0120tune", "5984": "\u0120toss", "5985": "\u0120timer", "5986": "\u0120teamwork", "5987": "\u0120surrounded", "5988": "\u0120struggling", "5989": "\u0120spraying", "5990": "\u0120spaceship", "5991": "\u0120sneaky", "5992": "\u0120shrug", "5993": "\u0120restored", "5994": "\u0120prettiest", "5995": "\u0120patiently", "5996": "\u0120onwards", "5997": "\u0120obe", "5998": "\u0120neighbourhood", "5999": "\u0120neighbors", "6000": "\u0120liquid", "6001": "\u0120hesit", "6002": "\u0120helmets", "6003": "\u0120glasses", "6004": "\u0120foods", "6005": "\u0120flags", "6006": "\u0120dinosaurs", "6007": "\u0120died", "6008": "\u0120creation", "6009": "\u0120contest", "6010": "\u0120contain", "6011": "\u0120company", "6012": "\u0120bedtime", "6013": "\u0120awake", "6014": "\u0120Water", "6015": "\u0120Rover", "6016": "\u0120Re", "6017": "\u0120Kids", "6018": "\u0120Dino", "6019": "\u0120Bye", "6020": "screen", "6021": "rian", "6022": "lee", "6023": "go", "6024": "enty", "6025": "compl", "6026": "band", "6027": "ashed", "6028": "amie", "6029": "ads", "6030": "Tiny", "6031": "George", "6032": "Ew", "6033": "\u0120worker", "6034": "\u0120succeeded", "6035": "\u0120stare", "6036": "\u0120sights", "6037": "\u0120siren", "6038": "\u0120scooters", "6039": "\u0120sings", "6040": "\u0120recognized", "6041": "\u0120quacked", "6042": "\u0120project", "6043": "\u0120pride", "6044": "\u0120polishing", "6045": "\u0120poking", "6046": "\u0120paying", "6047": "\u0120paintings", "6048": "\u0120obey", "6049": "\u0120loaded", "6050": "\u0120insist", "6051": "\u0120glitter", "6052": "\u0120frosting", "6053": "\u0120crept", "6054": "\u0120chef", "6055": "\u0120catches", "6056": "\u0120bloomed", "6057": "\u0120appreciate", "6058": "\u0120achie", "6059": "\u0120Spring", "6060": "\u0120Slowly", "6061": "\u0120Santa", "6062": "\u0120Quick", "6063": "\u0120Like", "6064": "\u0120Keep", "6065": "\u0120Kay", "6066": "\u0120X", "6067": "ulp", "6068": "uffin", "6069": "uctions", "6070": "scin", "6071": "nie", "6072": "ays", "6073": "Whiskers", "6074": "Remember", "6075": "Pete", "6076": "Paul", "6077": "Mrs", "6078": "During", "6079": "...\"", "6080": "\u0120traded", "6081": "\u0120thud", "6082": "\u0120splashes", "6083": "\u0120sighs", "6084": "\u0120seven", "6085": "\u0120scooped", "6086": "\u0120scattering", "6087": "\u0120ribbons", "6088": "\u0120rescued", "6089": "\u0120prec", "6090": "\u0120penguins", "6091": "\u0120pears", "6092": "\u0120peppers", "6093": "\u0120patience", "6094": "\u0120passports", "6095": "\u0120nails", "6096": "\u0120mittens", "6097": "\u0120mes", "6098": "\u0120instructions", "6099": "\u0120honk", "6100": "\u0120hi", "6101": "\u0120guys", "6102": "\u0120flutter", "6103": "\u0120flav", "6104": "\u0120fascin", "6105": "\u0120eight", "6106": "\u0120diving", "6107": "\u0120demanded", "6108": "\u0120cushions", "6109": "\u0120cones", "6110": "\u0120comple", "6111": "\u0120comm", "6112": "\u0120celebration", "6113": "\u0120bringing", "6114": "\u0120blows", "6115": "\u0120blooming", "6116": "\u0120beads", "6117": "\u0120balanced", "6118": "\u0120airplane", "6119": "\u0120accompl", "6120": "\u0120Luke", "6121": "\u0120Lenny", "6122": "\u0120Jessie", "6123": "\u0120Frog", "6124": "\u0120Fifi", "6125": "\u0120Everyday", "6126": "\u0120Dr", "6127": "\u0120Blink", "6128": "\u0120Ally", "6129": "zie", "6130": "ults", "6131": "uctantly", "6132": "lets", "6133": "lict", "6134": "iggy", "6135": "die", "6136": "big", "6137": "Zoomy", "6138": "Uh", "6139": "Our", "6140": "Luna", "6141": "Jake", "6142": "Have", "6143": "Fo", "6144": "First", "6145": "Bad", "6146": "Achoo", "6147": "\u0120wizard", "6148": "\u0120visiting", "6149": "\u0120villag", "6150": "\u0120usual", "6151": "\u0120untie", "6152": "\u0120unf", "6153": "\u0120todd", "6154": "\u0120starfish", "6155": "\u0120scales", "6156": "\u0120sadness", "6157": "\u0120reminder", "6158": "\u0120refre", "6159": "\u0120purred", "6160": "\u0120protecting", "6161": "\u0120protected", "6162": "\u0120pause", "6163": "\u0120organizing", "6164": "\u0120officer", "6165": "\u0120oat", "6166": "\u0120mission", "6167": "\u0120learns", "6168": "\u0120laying", "6169": "\u0120homework", "6170": "\u0120goodnight", "6171": "\u0120froze", "6172": "\u0120explorers", "6173": "\u0120examined", "6174": "\u0120drives", "6175": "\u0120conflict", "6176": "\u0120baker", "6177": "\u0120backward", "6178": "\u0120boo", "6179": "\u0120applauded", "6180": "\u0120apologize", "6181": "\u0120Muffin", "6182": "\u0120Leave", "6183": "\u0120Gogo", "6184": "\u0120Friends", "6185": "\u0120Behind", "6186": "step", "6187": "rance", "6188": "ords", "6189": "jo", "6190": "iders", "6191": "ern", "6192": "bigail", "6193": "bbled", "6194": "bl", "6195": "arter", "6196": "actly", "6197": "aa", "6198": "Tweet", "6199": "Somet", "6200": "\u0120yesterday", "6201": "\u0120wins", "6202": "\u0120whatever", "6203": "\u0120wound", "6204": "\u0120victory", "6205": "\u0120toddler", "6206": "\u0120struck", "6207": "\u0120spikes", "6208": "\u0120spells", "6209": "\u0120smiley", "6210": "\u0120smallest", "6211": "\u0120smarter", "6212": "\u0120shivered", "6213": "\u0120rides", "6214": "\u0120released", "6215": "\u0120reluctantly", "6216": "\u0120recording", "6217": "\u0120prettier", "6218": "\u0120planets", "6219": "\u0120pastels", "6220": "\u0120muscle", "6221": "\u0120leading", "6222": "\u0120helpers", "6223": "\u0120guns", "6224": "\u0120firefight", "6225": "\u0120figures", "6226": "\u0120dragged", "6227": "\u0120dipped", "6228": "\u0120cracked", "6229": "\u0120changing", "6230": "\u0120cause", "6231": "\u0120barely", "6232": "\u0120Yesterday", "6233": "\u0120Thomas", "6234": "\u0120Pippa", "6235": "\u0120Pepper", "6236": "\u0120Moo", "6237": "\u0120Love", "6238": "\u0120Jessica", "6239": "\u0120Jenna", "6240": "\u0120Hopper", "6241": "\u0120Green", "6242": "\u0120Gr", "6243": "\u0120Get", "6244": "\u0120Elephant", "6245": "\u0120Chloe", "6246": "\u0120Beep", "6247": "\u0120Am", "6248": "\u0120Q", "6249": "nies", "6250": "jamas", "6251": "ho", "6252": "anna", "6253": "Teddy", "6254": "Ste", "6255": "Silly", "6256": "Millie", "6257": "Jerry", "6258": "Grandpa", "6259": "An", "6260": "\u0120warnings", "6261": "\u0120vent", "6262": "\u0120united", "6263": "\u0120sunlight", "6264": "\u0120stole", "6265": "\u0120stern", "6266": "\u0120sprinkles", "6267": "\u0120shirts", "6268": "\u0120rockets", "6269": "\u0120reply", "6270": "\u0120rings", "6271": "\u0120precious", "6272": "\u0120packing", "6273": "\u0120inviting", "6274": "\u0120hugging", "6275": "\u0120firemen", "6276": "\u0120exactly", "6277": "\u0120delivering", "6278": "\u0120die", "6279": "\u0120dam", "6280": "\u0120covers", "6281": "\u0120click", "6282": "\u0120cous", "6283": "\u0120buzzing", "6284": "\u0120bowls", "6285": "\u0120behavi", "6286": "\u0120becoming", "6287": "\u0120bank", "6288": "\u0120anytime", "6289": "\u0120annoy", "6290": "\u0120Squirrel", "6291": "\u0120Sure", "6292": "\u0120Robert", "6293": "\u0120Rollie", "6294": "\u0120Rabbit", "6295": "\u0120Princess", "6296": "\u0120Meg", "6297": "\u0120Marie", "6298": "\u0120Hippy", "6299": "\u0120Gir", "6300": "\u0120Chew", "6301": "\u0120Betsy", "6302": "ueen", "6303": "uly", "6304": "rink", "6305": "irm", "6306": "iding", "6307": "guing", "6308": "fied", "6309": "eah", "6310": "bly", "6311": "Unfortunately", "6312": "Su", "6313": "Oops", "6314": "Milly", "6315": "Ah", "6316": "\u0120wraps", "6317": "\u0120wiggled", "6318": "\u0120whose", "6319": "\u0120weren", "6320": "\u0120wid", "6321": "\u0120villagers", "6322": "\u0120vines", "6323": "\u0120tickets", "6324": "\u0120sports", "6325": "\u0120sparkles", "6326": "\u0120snowballs", "6327": "\u0120situation", "6328": "\u0120separated", "6329": "\u0120sending", "6330": "\u0120sense", "6331": "\u0120refle", "6332": "\u0120quarreling", "6333": "\u0120princesses", "6334": "\u0120possible", "6335": "\u0120peered", "6336": "\u0120peas", "6337": "\u0120pajamas", "6338": "\u0120pins", "6339": "\u0120misses", "6340": "\u0120masks", "6341": "\u0120joked", "6342": "\u0120introduc", "6343": "\u0120gotten", "6344": "\u0120fault", "6345": "\u0120cuddle", "6346": "\u0120complained", "6347": "\u0120cocoon", "6348": "\u0120chips", "6349": "\u0120arrive", "6350": "\u0120arguing", "6351": "\u0120activities", "6352": "\u0120Unfortunately", "6353": "\u0120Turtle", "6354": "\u0120Top", "6355": "\u0120Star", "6356": "\u0120Robo", "6357": "\u0120Queen", "6358": "\u0120Po", "6359": "\u0120Joy", "6360": "\u0120Jilly", "6361": "\u0120Hor", "6362": "\u0120Dara", "6363": "\u0120Buggy", "6364": "\u0120By", "6365": "\u0120Because", "6366": "rey", "6367": "dam", "6368": "cuse", "6369": "bric", "6370": "atches", "6371": "anie", "6372": "Ru", "6373": "Or", "6374": "Mar", "6375": "Mandy", "6376": "Lilly", "6377": "Dave", "6378": "Buzz", "6379": "\u0120yells", "6380": "\u0120widened", "6381": "\u0120woof", "6382": "\u0120twirl", "6383": "\u0120tricky", "6384": "\u0120travell", "6385": "\u0120tractor", "6386": "\u0120truly", "6387": "\u0120thro", "6388": "\u0120teased", "6389": "\u0120superheroes", "6390": "\u0120startled", "6391": "\u0120spins", "6392": "\u0120spiders", "6393": "\u0120somebody", "6394": "\u0120snatched", "6395": "\u0120scarves", "6396": "\u0120sides", "6397": "\u0120requested", "6398": "\u0120rainbows", "6399": "\u0120properly", "6400": "\u0120powers", "6401": "\u0120pockets", "6402": "\u0120plenty", "6403": "\u0120perched", "6404": "\u0120paths", "6405": "\u0120pout", "6406": "\u0120naps", "6407": "\u0120motion", "6408": "\u0120mailed", "6409": "\u0120knocks", "6410": "\u0120kicks", "6411": "\u0120items", "6412": "\u0120itchy", "6413": "\u0120increased", "6414": "\u0120improved", "6415": "\u0120hus", "6416": "\u0120growling", "6417": "\u0120groups", "6418": "\u0120greet", "6419": "\u0120grandmother", "6420": "\u0120gri", "6421": "\u0120forgiving", "6422": "\u0120forehead", "6423": "\u0120fascinated", "6424": "\u0120farther", "6425": "\u0120fabric", "6426": "\u0120firm", "6427": "\u0120discovering", "6428": "\u0120curiosity", "6429": "\u0120cuddly", "6430": "\u0120completed", "6431": "\u0120choices", "6432": "\u0120chirping", "6433": "\u0120caused", "6434": "\u0120brand", "6435": "\u0120bounces", "6436": "\u0120blocking", "6437": "\u0120biting", "6438": "\u0120bells", "6439": "\u0120belly", "6440": "\u0120Zipper", "6441": "\u0120Want", "6442": "\u0120Tara", "6443": "\u0120Stay", "6444": "\u0120Snowman", "6445": "\u0120Lena", "6446": "\u0120Hoot", "6447": "\u0120Giraffe", "6448": "\u0120Foxy", "6449": "\u0120Fishy", "6450": "\u0120En", "6451": "\u0120Chess", "6452": "\u0120Barry", "6453": "vin", "6454": "uture", "6455": "though", "6456": "steps", "6457": "seek", "6458": "inkle", "6459": "ining", "6460": "eff", "6461": "anes", "6462": "aker", "6463": "Yeah", "6464": "Sometimes", "6465": "Pe", "6466": "Listen", "6467": "Hold", "6468": "Excuse", "6469": "Charlie", "6470": "\u0120worries", "6471": "\u0120usually", "6472": "\u0120tunnels", "6473": "\u0120throat", "6474": "\u0120swoop", "6475": "\u0120swit", "6476": "\u0120stands", "6477": "\u0120sobbed", "6478": "\u0120soaring", "6479": "\u0120shrinking", "6480": "\u0120rocking", "6481": "\u0120rip", "6482": "\u0120rewarded", "6483": "\u0120reaching", "6484": "\u0120promises", "6485": "\u0120pops", "6486": "\u0120policeman", "6487": "\u0120polar", "6488": "\u0120pointy", "6489": "\u0120observed", "6490": "\u0120neither", "6491": "\u0120nine", "6492": "\u0120listens", "6493": "\u0120images", "6494": "\u0120honked", "6495": "\u0120handful", "6496": "\u0120hallway", "6497": "\u0120giggling", "6498": "\u0120folding", "6499": "\u0120future", "6500": "\u0120direction", "6501": "\u0120dived", "6502": "\u0120dar", "6503": "\u0120curtains", "6504": "\u0120creating", "6505": "\u0120chases", "6506": "\u0120buzzed", "6507": "\u0120behaving", "6508": "\u0120bur", "6509": "\u0120Woo", "6510": "\u0120Uncle", "6511": "\u0120Truck", "6512": "\u0120Sparkle", "6513": "\u0120Shadow", "6514": "\u0120Say", "6515": "\u0120Prince", "6516": "\u0120Put", "6517": "\u0120Patch", "6518": "\u0120Oak", "6519": "\u0120Holly", "6520": "\u0120Brownie", "6521": "\u00e2\u0122\u0136", "6522": "yond", "6523": "ustom", "6524": "urried", "6525": "une", "6526": "tuce", "6527": "onge", "6528": "nk", "6529": "lowers", "6530": "lay", "6531": "iggie", "6532": "ido", "6533": "eds", "6534": "cakes", "6535": "blings", "6536": "bie", "6537": "ason", "6538": "angled", "6539": "abella", "6540": "Sunny", "6541": "Quack", "6542": "Maggie", "6543": "Henry", "6544": "Car", "6545": "==", "6546": "\u0120whispers", "6547": "\u0120vanilla", "6548": "\u0120untied", "6549": "\u0120unp", "6550": "\u0120tasks", "6551": "\u0120suffered", "6552": "\u0120stays", "6553": "\u0120staring", "6554": "\u0120sponge", "6555": "\u0120siblings", "6556": "\u0120seesaw", "6557": "\u0120scurried", "6558": "\u0120sank", "6559": "\u0120repa", "6560": "\u0120pretends", "6561": "\u0120noses", "6562": "\u0120nests", "6563": "\u0120napkins", "6564": "\u0120movies", "6565": "\u0120lettuce", "6566": "\u0120leaning", "6567": "\u0120lap", "6568": "\u0120interested", "6569": "\u0120husband", "6570": "\u0120growls", "6571": "\u0120grows", "6572": "\u0120gasp", "6573": "\u0120gross", "6574": "\u0120firefly", "6575": "\u0120everyday", "6576": "\u0120dropping", "6577": "\u0120deserve", "6578": "\u0120dent", "6579": "\u0120corners", "6580": "\u0120contro", "6581": "\u0120completely", "6582": "\u0120chuck", "6583": "\u0120chop", "6584": "\u0120celebrating", "6585": "\u0120cans", "6586": "\u0120custom", "6587": "\u0120cent", "6588": "\u0120bracelets", "6589": "\u0120bodies", "6590": "\u0120beyond", "6591": "\u0120basement", "6592": "\u0120avo", "6593": "\u0120agrees", "6594": "\u0120ast", "6595": "\u0120Olly", "6596": "\u0120Nothing", "6597": "\u0120Mouse", "6598": "\u0120However", "6599": "\u0120Gina", "6600": "\u0120For", "6601": "\u0120Birdie", "6602": "utty", "6603": "uzzy", "6604": "pite", "6605": "ounce", "6606": "ooed", "6607": "joyed", "6608": "itely", "6609": "iley", "6610": "eed", "6611": "awn", "6612": "Whee", "6613": "Very", "6614": "Those", "6615": "Susie", "6616": "Run", "6617": "Lola", "6618": "Doggy", "6619": "Chirpy", "6620": "Bunny", "6621": "Big", "6622": "?'", "6623": "\u0120yum", "6624": "\u0120wobbly", "6625": "\u0120wishing", "6626": "\u0120ventured", "6627": "\u0120vowed", "6628": "\u0120tickled", "6629": "\u0120tearing", "6630": "\u0120sweets", "6631": "\u0120surface", "6632": "\u0120supplies", "6633": "\u0120squares", "6634": "\u0120squishy", "6635": "\u0120spreading", "6636": "\u0120speaking", "6637": "\u0120slam", "6638": "\u0120singer", "6639": "\u0120sails", "6640": "\u0120replaced", "6641": "\u0120repaired", "6642": "\u0120reads", "6643": "\u0120ranger", "6644": "\u0120pumpkins", "6645": "\u0120practicing", "6646": "\u0120potion", "6647": "\u0120peeking", "6648": "\u0120patted", "6649": "\u0120partic", "6650": "\u0120merry", "6651": "\u0120losing", "6652": "\u0120keys", "6653": "\u0120however", "6654": "\u0120fact", "6655": "\u0120dots", "6656": "\u0120dollar", "6657": "\u0120confident", "6658": "\u0120bravery", "6659": "\u0120batteries", "6660": "\u0120backwards", "6661": "\u0120accomplish", "6662": "\u0120Whist", "6663": "\u0120Wink", "6664": "\u0120Twinkle", "6665": "\u0120Sofia", "6666": "\u0120Pup", "6667": "\u0120Pine", "6668": "\u0120Pam", "6669": "\u0120Our", "6670": "\u0120Nice", "6671": "\u0120Mix", "6672": "\u0120Julie", "6673": "\u0120Jolly", "6674": "\u0120Horsy", "6675": "\u0120Ex", "6676": "\u0120Crab", "6677": "\u0120Cow", "6678": "\u0120\u010a\u0120", "6679": "usted", "6680": "order", "6681": "ivi", "6682": "fly", "6683": "father", "6684": "eal", "6685": "ctions", "6686": "cl", "6687": "Yummy", "6688": "Spike", "6689": "Some", "6690": "Ruby", "6691": "Pipp", "6692": "Mine", "6693": "Lulu", "6694": "Le", "6695": "Great", "6696": "Fine", "6697": "?\",", "6698": "\u0120workers", "6699": "\u0120wires", "6700": "\u0120wandering", "6701": "\u0120uses", "6702": "\u0120unpacked", "6703": "\u0120twinkling", "6704": "\u0120student", "6705": "\u0120stroked", "6706": "\u0120steady", "6707": "\u0120stem", "6708": "\u0120stain", "6709": "\u0120sprang", "6710": "\u0120softer", "6711": "\u0120snowmen", "6712": "\u0120shorts", "6713": "\u0120scratches", "6714": "\u0120satis", "6715": "\u0120rotting", "6716": "\u0120rolls", "6717": "\u0120roses", "6718": "\u0120ripe", "6719": "\u0120refreshed", "6720": "\u0120reflection", "6721": "\u0120risk", "6722": "\u0120pouring", "6723": "\u0120poster", "6724": "\u0120players", "6725": "\u0120planning", "6726": "\u0120paddle", "6727": "\u0120padd", "6728": "\u0120pec", "6729": "\u0120outdo", "6730": "\u0120necklaces", "6731": "\u0120ni", "6732": "\u0120mommies", "6733": "\u0120minerals", "6734": "\u0120marked", "6735": "\u0120lighter", "6736": "\u0120knees", "6737": "\u0120guests", "6738": "\u0120grip", "6739": "\u0120footsteps", "6740": "\u0120flames", "6741": "\u0120firefighters", "6742": "\u0120filling", "6743": "\u0120entrance", "6744": "\u0120entire", "6745": "\u0120dolphins", "6746": "\u0120dentist", "6747": "\u0120decorating", "6748": "\u0120deal", "6749": "\u0120counts", "6750": "\u0120competition", "6751": "\u0120comforted", "6752": "\u0120chefs", "6753": "\u0120choo", "6754": "\u0120calmed", "6755": "\u0120aside", "6756": "\u0120arrows", "6757": "\u0120Without", "6758": "\u0120Suzie", "6759": "\u0120Sorry", "6760": "\u0120Sl", "6761": "\u0120Paws", "6762": "\u0120Ol", "6763": "\u0120Nick", "6764": "\u0120Monster", "6765": "\u0120Fit", "6766": "\u0120Enjoy", "6767": "\u0120Birthday", "6768": "\u0120Biggie", "6769": "zes", "6770": "xie", "6771": "vroom", "6772": "umbling", "6773": "uri", "6774": "sty", "6775": "sequ", "6776": "sequence", "6777": "rixie", "6778": "oline", "6779": "ledge", "6780": "iles", "6781": "hausted", "6782": "ercy", "6783": "ently", "6784": "ela", "6785": "brush", "6786": "aye", "6787": "ampoline", "6788": "alph", "6789": "Zoom", "6790": "Take", "6791": "Steve", "6792": "Sn", "6793": "Roar", "6794": "Out", "6795": "Mike", "6796": "Luckily", "6797": "Lizzy", "6798": "Katie", "6799": "Get", "6800": "Follow", "6801": "Ellie", "6802": "Dolly", "6803": "Bear", "6804": "Annie", "6805": "\u0120winked", "6806": "\u0120watering", "6807": "\u0120waiter", "6808": "\u0120wow", "6809": "\u0120trampoline", "6810": "\u0120towels", "6811": "\u0120touches", "6812": "\u0120third", "6813": "\u0120tiss", "6814": "\u0120tangled", "6815": "\u0120surfing", "6816": "\u0120supported", "6817": "\u0120strongest", "6818": "\u0120steer", "6819": "\u0120stool", "6820": "\u0120single", "6821": "\u0120signed", "6822": "\u0120shovels", "6823": "\u0120shelves", "6824": "\u0120seeker", "6825": "\u0120respons", "6826": "\u0120remembering", "6827": "\u0120relief", "6828": "\u0120recorder", "6829": "\u0120rising", "6830": "\u0120prayer", "6831": "\u0120piggy", "6832": "\u0120performed", "6833": "\u0120pastries", "6834": "\u0120passing", "6835": "\u0120overjoyed", "6836": "\u0120outdoors", "6837": "\u0120opp", "6838": "\u0120notes", "6839": "\u0120mood", "6840": "\u0120lollipops", "6841": "\u0120licking", "6842": "\u0120least", "6843": "\u0120knowledge", "6844": "\u0120included", "6845": "\u0120hider", "6846": "\u0120heav", "6847": "\u0120flavor", "6848": "\u0120flapping", "6849": "\u0120elbow", "6850": "\u0120drums", "6851": "\u0120desert", "6852": "\u0120consequence", "6853": "\u0120conn", "6854": "\u0120closes", "6855": "\u0120chuckled", "6856": "\u0120cheeks", "6857": "\u0120chat", "6858": "\u0120burns", "6859": "\u0120begin", "6860": "\u0120beam", "6861": "\u0120bathing", "6862": "\u0120bunch", "6863": "\u0120Zee", "6864": "\u0120Yawn", "6865": "\u0120Tweetie", "6866": "\u0120Stella", "6867": "\u0120Sw", "6868": "\u0120Pu", "6869": "\u0120Jojo", "6870": "\u0120Jeff", "6871": "\u0120Hur", "6872": "\u0120Goodbye", "6873": "\u0120Dizzy", "6874": "\u0120Brian", "6875": "\u0120Book", "6876": "\u0120Anne", "6877": "\u0120Aunt", "6878": "\u0120Abigail", "6879": "\u0120\u0120", "6880": "urtles", "6881": "urious", "6882": "ths", "6883": "rrr", "6884": "romise", "6885": "ossible", "6886": "no", "6887": "isions", "6888": "inny", "6889": "icha", "6890": "ichael", "6891": "fall", "6892": "een", "6893": "bert", "6894": "autious", "6895": "Rose", "6896": "Penny", "6897": "May", "6898": "Jump", "6899": "Harry", "6900": "Danny", "6901": "\u0120wipes", "6902": "\u0120whistles", "6903": "\u0120twirling", "6904": "\u0120toaster", "6905": "\u0120thorn", "6906": "\u0120tables", "6907": "\u0120turtles", "6908": "\u0120swooped", "6909": "\u0120swords", "6910": "\u0120surroundings", "6911": "\u0120stew", "6912": "\u0120squeaked", "6913": "\u0120spat", "6914": "\u0120sneezing", "6915": "\u0120ships", "6916": "\u0120sewed", "6917": "\u0120sale", "6918": "\u0120rocked", "6919": "\u0120rains", "6920": "\u0120rusty", "6921": "\u0120rumble", "6922": "\u0120prayers", "6923": "\u0120particular", "6924": "\u0120ornaments", "6925": "\u0120mushrooms", "6926": "\u0120minded", "6927": "\u0120matters", "6928": "\u0120machines", "6929": "\u0120loading", "6930": "\u0120kittens", "6931": "\u0120joining", "6932": "\u0120introduced", "6933": "\u0120instrum", "6934": "\u0120impossible", "6935": "\u0120humans", "6936": "\u0120hesitated", "6937": "\u0120forgiven", "6938": "\u0120fits", "6939": "\u0120fairies", "6940": "\u0120exhausted", "6941": "\u0120ends", "6942": "\u0120decisions", "6943": "\u0120darkness", "6944": "\u0120darling", "6945": "\u0120dancers", "6946": "\u0120cousin", "6947": "\u0120control", "6948": "\u0120consequences", "6949": "\u0120bru", "6950": "\u0120blown", "6951": "\u0120baths", "6952": "\u0120bars", "6953": "\u0120backpacks", "6954": "\u0120adding", "6955": "\u0120achieve", "6956": "\u0120aimed", "6957": "\u0120aff", "6958": "\u0120Ziggy", "6959": "\u0120Vivi", "6960": "\u0120Softy", "6961": "\u0120Sc", "6962": "\u0120Reg", "6963": "\u0120Ph", "6964": "\u0120Oxy", "6965": "\u0120Nutty", "6966": "\u0120Lau", "6967": "\u0120Kaylee", "6968": "\u0120Jones", "6969": "\u0120Janie", "6970": "\u0120Jamie", "6971": "\u0120Hurricane", "6972": "\u0120Fido", "6973": "\u0120Beth", "6974": "\u0120Belle", "6975": "\u012010", "6976": "\u0120icing", "6977": "you", "6978": "ters", "6979": "sm", "6980": "shing", "6981": "oke", "6982": "ody", "6983": "ndy", "6984": "neath", "6985": "lle", "6986": "hi", "6987": "gers", "6988": "ept", "6989": "eese", "6990": "dding", "6991": "chy", "6992": "ces", "6993": "cited", "6994": "cie", "6995": "alloween", "6996": "ading", "6997": "ades", "6998": "abel", "6999": "Grace", "7000": "Co", "7001": "Beep", "7002": "Bet", "7003": "Baby", "7004": "Alex", "7005": "\u0120yourselves", "7006": "\u0120wrist", "7007": "\u0120wee", "7008": "\u0120wakes", "7009": "\u0120uns", "7010": "\u0120und", "7011": "\u0120twisting", "7012": "\u0120tighter", "7013": "\u0120tested", "7014": "\u0120talents", "7015": "\u0120swimmer", "7016": "\u0120stung", "7017": "\u0120stumble", "7018": "\u0120sparks", "7019": "\u0120slowed", "7020": "\u0120slammed", "7021": "\u0120skirts", "7022": "\u0120sewing", "7023": "\u0120salty", "7024": "\u0120robber", "7025": "\u0120regretted", "7026": "\u0120prick", "7027": "\u0120nodding", "7028": "\u0120neare", "7029": "\u0120nuzz", "7030": "\u0120mesmer", "7031": "\u0120loops", "7032": "\u0120lending", "7033": "\u0120jackets", "7034": "\u0120heavier", "7035": "\u0120health", "7036": "\u0120heading", "7037": "\u0120guide", "7038": "\u0120grandfather", "7039": "\u0120gracefully", "7040": "\u0120gobbled", "7041": "\u0120ghosts", "7042": "\u0120goo", "7043": "\u0120geese", "7044": "\u0120frowning", "7045": "\u0120forks", "7046": "\u0120forgets", "7047": "\u0120fever", "7048": "\u0120fart", "7049": "\u0120erase", "7050": "\u0120doctors", "7051": "\u0120directions", "7052": "\u0120determination", "7053": "\u0120curly", "7054": "\u0120crumb", "7055": "\u0120clowns", "7056": "\u0120carts", "7057": "\u0120bumps", "7058": "\u0120angels", "7059": "\u0120aloud", "7060": "\u0120Wo", "7061": "\u0120Toot", "7062": "\u0120Those", "7063": "\u0120Toys", "7064": "\u0120Spirit", "7065": "\u0120Shiver", "7066": "\u0120Sadly", "7067": "\u0120Rudy", "7068": "\u0120Pink", "7069": "\u0120Other", "7070": "\u0120Mill", "7071": "\u0120Mild", "7072": "\u0120Mam", "7073": "\u0120Liam", "7074": "\u0120Jennie", "7075": "\u0120Jacky", "7076": "\u0120Ju", "7077": "\u0120Faye", "7078": "\u0120Dina", "7079": "ronaut", "7080": "reverse", "7081": "oosh", "7082": "iversity", "7083": "its", "7084": "iggles", "7085": "iel", "7086": "Vroom", "7087": "Shrink", "7088": "Sad", "7089": "Lina", "7090": "Kim", "7091": "Keep", "7092": "For", "7093": "Even", "7094": "Elly", "7095": "...", "7096": ".'\"", "7097": "--", "7098": "\u0120yielded", "7099": "\u0120warmer", "7100": "\u0120videos", "7101": "\u0120underneath", "7102": "\u0120tweet", "7103": "\u0120tissue", "7104": "\u0120switched", "7105": "\u0120sweaty", "7106": "\u0120swept", "7107": "\u0120sunscreen", "7108": "\u0120stroll", "7109": "\u0120solut", "7110": "\u0120snuck", "7111": "\u0120slipping", "7112": "\u0120skunk", "7113": "\u0120self", "7114": "\u0120sy", "7115": "\u0120ruining", "7116": "\u0120rubs", "7117": "\u0120rows", "7118": "\u0120pos", "7119": "\u0120pleaded", "7120": "\u0120performing", "7121": "\u0120pecked", "7122": "\u0120paintbrush", "7123": "\u0120outf", "7124": "\u0120objects", "7125": "\u0120models", "7126": "\u0120magpie", "7127": "\u0120mater", "7128": "\u0120loses", "7129": "\u0120lies", "7130": "\u0120leap", "7131": "\u0120insects", "7132": "\u0120hopeful", "7133": "\u0120honesty", "7134": "\u0120hides", "7135": "\u0120glued", "7136": "\u0120frowns", "7137": "\u0120fleas", "7138": "\u0120feast", "7139": "\u0120farthest", "7140": "\u0120ev", "7141": "\u0120donkey", "7142": "\u0120dollhouse", "7143": "\u0120disob", "7144": "\u0120den", "7145": "\u0120customer", "7146": "\u0120crumbs", "7147": "\u0120countryside", "7148": "\u0120combed", "7149": "\u0120cobwebs", "7150": "\u0120cor", "7151": "\u0120cautious", "7152": "\u0120breathed", "7153": "\u0120badge", "7154": "\u0120bun", "7155": "\u0120bumpy", "7156": "\u0120avoid", "7157": "\u0120astronaut", "7158": "\u0120annoyed", "7159": "\u0120among", "7160": "\u0120active", "7161": "\u0120Zero", "7162": "\u0120Trust", "7163": "\u0120Thanks", "7164": "\u0120Try", "7165": "\u0120Tippy", "7166": "\u0120Te", "7167": "\u0120Suki", "7168": "\u0120Starry", "7169": "\u0120Sadie", "7170": "\u0120Se", "7171": "\u0120Match", "7172": "\u0120Lina", "7173": "\u0120Jon", "7174": "\u0120Frosty", "7175": "\u0120Fle", "7176": "\u0120Didi", "7177": "\u0120Cro", "7178": "uren", "7179": "ulpture", "7180": "rup", "7181": "rops", "7182": "rin", "7183": "piece", "7184": "oring", "7185": "llen", "7186": "iolet", "7187": "indrops", "7188": "ilo", "7189": "igers", "7190": "elia", "7191": "ddie", "7192": "cept", "7193": "cc", "7194": "bbie", "7195": "arac", "7196": "ans", "7197": "aned", "7198": "addie", "7199": "auren", "7200": "Pippin", "7201": "Put", "7202": "Lena", "7203": "Gina", "7204": "Clara", "7205": "Che", "7206": "Betty", "7207": "Buzzy", "7208": "Boys", "7209": "Bow", "7210": "\u0120zooms", "7211": "\u0120visitors", "7212": "\u0120unsure", "7213": "\u0120unw", "7214": "\u0120trusting", "7215": "\u0120treehouse", "7216": "\u0120tipto", "7217": "\u0120talented", "7218": "\u0120tipped", "7219": "\u0120tigers", "7220": "\u0120stuffing", "7221": "\u0120squeezing", "7222": "\u0120spits", "7223": "\u0120slower", "7224": "\u0120slither", "7225": "\u0120shown", "7226": "\u0120scrub", "7227": "\u0120sculpture", "7228": "\u0120scra", "7229": "\u0120sway", "7230": "\u0120sens", "7231": "\u0120responsible", "7232": "\u0120reminds", "7233": "\u0120rever", "7234": "\u0120reason", "7235": "\u0120rainy", "7236": "\u0120raindrops", "7237": "\u0120rather", "7238": "\u0120purr", "7239": "\u0120printing", "7240": "\u0120prickly", "7241": "\u0120prevented", "7242": "\u0120planting", "7243": "\u0120plain", "7244": "\u0120occ", "7245": "\u0120materi", "7246": "\u0120masterpiece", "7247": "\u0120markers", "7248": "\u0120munch", "7249": "\u0120loudest", "7250": "\u0120leads", "7251": "\u0120knocking", "7252": "\u0120joins", "7253": "\u0120including", "7254": "\u0120imagining", "7255": "\u0120ignoring", "7256": "\u0120halves", "7257": "\u0120gazing", "7258": "\u0120flight", "7259": "\u0120fans", "7260": "\u0120earn", "7261": "\u0120dragonfly", "7262": "\u0120dod", "7263": "\u0120designed", "7264": "\u0120def", "7265": "\u0120damage", "7266": "\u0120curiously", "7267": "\u0120creams", "7268": "\u0120charac", "7269": "\u0120cash", "7270": "\u0120buying", "7271": "\u0120blinking", "7272": "\u0120backed", "7273": "\u0120ashes", "7274": "\u0120anger", "7275": "\u0120age", "7276": "\u0120afterwards", "7277": "\u0120adults", "7278": "\u0120ache", "7279": "\u0120aud", "7280": "\u0120Whistle", "7281": "\u0120Wiggles", "7282": "\u0120Tam", "7283": "\u0120Percy", "7284": "\u0120Pen", "7285": "\u0120Megan", "7286": "\u0120Mother", "7287": "\u0120Mint", "7288": "\u0120Listen", "7289": "\u0120Laser", "7290": "\u0120Hold", "7291": "\u0120Halloween", "7292": "\u0120Davey", "7293": "\u0120Day", "7294": "\u0120Chick", "7295": "\u0120Candy", "7296": "\u0120Bally", "7297": "\u0120Ball", "7298": "\u0120Baa", "7299": "\u0120Along", "7300": "\u0120Adam", "7301": "wise", "7302": "using", "7303": "uno", "7304": "umph", "7305": "uggles", "7306": "uing", "7307": "ude", "7308": "pecting", "7309": "pit", "7310": "osite", "7311": "ohny", "7312": "obody", "7313": "laying", "7314": "len", "7315": "itude", "7316": "ition", "7317": "itches", "7318": "issa", "7319": "ira", "7320": "inda", "7321": "iliar", "7322": "found", "7323": "endy", "7324": "ching", "7325": "ceries", "7326": "aren", "7327": "ampion", "7328": "amiliar", "7329": "aled", "7330": "achel", "7331": "Under", "7332": "Tina", "7333": "Suzy", "7334": "Pat", "7335": "Pandy", "7336": "Kate", "7337": "Joey", "7338": "Julie", "7339": "Jazz", "7340": "Hurry", "7341": "Fro", "7342": "David", "7343": "Dan", "7344": "Cindy", "7345": "Always", "7346": "'.\"", "7347": "!\u00e2\u0122\u013f.", "7348": "\u0120wounds", "7349": "\u0120wobbled", "7350": "\u0120wiping", "7351": "\u0120wealth", "7352": "\u0120unwra", "7353": "\u0120unfamiliar", "7354": "\u0120twists", "7355": "\u0120twinkled", "7356": "\u0120twice", "7357": "\u0120travelled", "7358": "\u0120tossed", "7359": "\u0120tires", "7360": "\u0120temper", "7361": "\u0120tasting", "7362": "\u0120talks", "7363": "\u0120ting", "7364": "\u0120tin", "7365": "\u0120tid", "7366": "\u0120surprising", "7367": "\u0120surfboard", "7368": "\u0120stopping", "7369": "\u0120stolen", "7370": "\u0120source", "7371": "\u0120solution", "7372": "\u0120solving", "7373": "\u0120soaking", "7374": "\u0120satisfied", "7375": "\u0120sill", "7376": "\u0120rubbing", "7377": "\u0120reversed", "7378": "\u0120reminding", "7379": "\u0120recommended", "7380": "\u0120rails", "7381": "\u0120presses", "7382": "\u0120pleasure", "7383": "\u0120plucked", "7384": "\u0120papa", "7385": "\u0120paddled", "7386": "\u0120oysters", "7387": "\u0120overcome", "7388": "\u0120opposite", "7389": "\u0120occas", "7390": "\u0120nearest", "7391": "\u0120mooed", "7392": "\u0120miles", "7393": "\u0120maker", "7394": "\u0120lifting", "7395": "\u0120lower", "7396": "\u0120journeys", "7397": "\u0120indeed", "7398": "\u0120insp", "7399": "\u0120groceries", "7400": "\u0120form", "7401": "\u0120fluttered", "7402": "\u0120flipped", "7403": "\u0120firmly", "7404": "\u0120fins", "7405": "\u0120freed", "7406": "\u0120everybody", "7407": "\u0120evil", "7408": "\u0120duckling", "7409": "\u0120drivers", "7410": "\u0120colored", "7411": "\u0120colder", "7412": "\u0120cheers", "7413": "\u0120champion", "7414": "\u0120caterpillars", "7415": "\u0120camping", "7416": "\u0120cott", "7417": "\u0120bunnies", "7418": "\u0120buses", "7419": "\u0120brushing", "7420": "\u0120bows", "7421": "\u0120bottles", "7422": "\u0120behaviour", "7423": "\u0120bandages", "7424": "\u0120audience", "7425": "\u0120amount", "7426": "\u0120adult", "7427": "\u0120accomplishment", "7428": "\u0120abil", "7429": "\u0120Woolly", "7430": "\u0120Weapon", "7431": "\u0120Wake", "7432": "\u0120Up", "7433": "\u0120Trixie", "7434": "\u0120Tia", "7435": "\u0120Snuggles", "7436": "\u0120Snap", "7437": "\u0120Shake", "7438": "\u0120Oliver", "7439": "\u0120Near", "7440": "\u0120Indy", "7441": "\u0120Gracie", "7442": "\u0120Gray", "7443": "\u0120Elle", "7444": "\u0120Ed", "7445": "\u0120Bruno", "7446": "\u0120Bluey", "7447": "\u0120Bark", "7448": "what", "7449": "woo", "7450": "vers", "7451": "urr", "7452": "uess", "7453": "son", "7454": "ptop", "7455": "owny", "7456": "osen", "7457": "ngela", "7458": "lsa", "7459": "kend", "7460": "kelly", "7461": "itted", "7462": "ighing", "7463": "idey", "7464": "ici", "7465": "ibb", "7466": "ibbit", "7467": "hopper", "7468": "feree", "7469": "erm", "7470": "cky", "7471": "chievous", "7472": "cho", "7473": "cher", "7474": "but", "7475": "ashes", "7476": "amb", "7477": "allowed", "7478": "aling", "7479": "ably", "7480": "Thomas", "7481": "Toby", "7482": "Ribbit", "7483": "People", "7484": "Op", "7485": "Nick", "7486": "Liz", "7487": "Josh", "7488": "Jessie", "7489": "Guess", "7490": "Days", "7491": "Br", "7492": "Bill", "7493": "Bang", "7494": "Alright", "7495": "Afterwards", "7496": "Aunt", "7497": "Am", "7498": "Abby", "7499": "?!\"", "7500": "!\u00e2\u0122\u013b", "7501": "\u0120younger", "7502": "\u0120yelp", "7503": "\u0120written", "7504": "\u0120within", "7505": "\u0120weekend", "7506": "\u0120wasting", "7507": "\u0120tubes", "7508": "\u0120troubles", "7509": "\u0120trembled", "7510": "\u0120tops", "7511": "\u0120thrown", "7512": "\u0120taped", "7513": "\u0120tapping", "7514": "\u0120ty", "7515": "\u0120swimsuit", "7516": "\u0120swap", "7517": "\u0120swallowed", "7518": "\u0120stroke", "7519": "\u0120strips", "7520": "\u0120squeak", "7521": "\u0120speeding", "7522": "\u0120spice", "7523": "\u0120sniffing", "7524": "\u0120sharks", "7525": "\u0120seasons", "7526": "\u0120scored", "7527": "\u0120robots", "7528": "\u0120robin", "7529": "\u0120results", "7530": "\u0120respected", "7531": "\u0120repeats", "7532": "\u0120repeating", "7533": "\u0120referee", "7534": "\u0120raccoon", "7535": "\u0120rays", "7536": "\u0120punishment", "7537": "\u0120pouted", "7538": "\u0120playroom", "7539": "\u0120pigeons", "7540": "\u0120peacefully", "7541": "\u0120parted", "7542": "\u0120pancakes", "7543": "\u0120onward", "7544": "\u0120onions", "7545": "\u0120newfound", "7546": "\u0120neatly", "7547": "\u0120mischievous", "7548": "\u0120lifts", "7549": "\u0120laptop", "7550": "\u0120lump", "7551": "\u0120inspired", "7552": "\u0120inches", "7553": "\u0120healing", "7554": "\u0120guardian", "7555": "\u0120grasshopper", "7556": "\u0120goalie", "7557": "\u0120gardener", "7558": "\u0120friendships", "7559": "\u0120forgetting", "7560": "\u0120force", "7561": "\u0120flown", "7562": "\u0120flock", "7563": "\u0120flip", "7564": "\u0120figured", "7565": "\u0120familiar", "7566": "\u0120explorer", "7567": "\u0120encourag", "7568": "\u0120efforts", "7569": "\u0120echo", "7570": "\u0120ease", "7571": "\u0120dripping", "7572": "\u0120drifted", "7573": "\u0120decision", "7574": "\u0120dump", "7575": "\u0120corre", "7576": "\u0120coloured", "7577": "\u0120cond", "7578": "\u0120circus", "7579": "\u0120chosen", "7580": "\u0120char", "7581": "\u0120cashier", "7582": "\u0120borrowed", "7583": "\u0120belts", "7584": "\u0120becomes", "7585": "\u0120banged", "7586": "\u0120backs", "7587": "\u0120automobiles", "7588": "\u0120apologised", "7589": "\u0120action", "7590": "\u0120Yet", "7591": "\u0120Yell", "7592": "\u0120Wendy", "7593": "\u0120Welcome", "7594": "\u0120Two", "7595": "\u0120Tank", "7596": "\u0120Show", "7597": "\u0120Skelly", "7598": "\u0120Ruff", "7599": "\u0120Ra", "7600": "\u0120Poor", "7601": "\u0120Pin", "7602": "\u0120Michael", "7603": "\u0120Ke", "7604": "\u0120Jackie", "7605": "\u0120Isabella", "7606": "\u0120Hook", "7607": "\u0120Fish", "7608": "\u0120Excited", "7609": "\u0120Dusty", "7610": "\u0120Copper", "7611": "\u0120Cla", "7612": "\u0120Cally", "7613": "\u0120Brad", "7614": "\u0120Acorn", "7615": "\u0120ouch", "7616": "thur", "7617": "the", "7618": "sess", "7619": "sa", "7620": "rier", "7621": "rick", "7622": "rthur", "7623": "rily", "7624": "orky", "7625": "opes", "7626": "ollen", "7627": "mates", "7628": "match", "7629": "ji", "7630": "imm", "7631": "igning", "7632": "hog", "7633": "hive", "7634": "form", "7635": "espite", "7636": "ening", "7637": "cope", "7638": "atur", "7639": "armer", "7640": "antern", "7641": "acles", "7642": "aver", "7643": "Zara", "7644": "Try", "7645": "Soup", "7646": "Like", "7647": "Jon", "7648": "Jamie", "7649": "Hop", "7650": "Coco", "7651": "Bessie", "7652": "Bee", "7653": "Barry", "7654": "\u0120wrapping", "7655": "\u0120wrink", "7656": "\u0120winners", "7657": "\u0120willing", "7658": "\u0120whimp", "7659": "\u0120weighing", "7660": "\u0120weeds", "7661": "\u0120waking", "7662": "\u0120tot", "7663": "\u0120tiptoed", "7664": "\u0120thorns", "7665": "\u0120teapot", "7666": "\u0120swollen", "7667": "\u0120stitches", "7668": "\u0120spoonful", "7669": "\u0120spills", "7670": "\u0120spices", "7671": "\u0120sniffs", "7672": "\u0120smelling", "7673": "\u0120smashed", "7674": "\u0120shaped", "7675": "\u0120shady", "7676": "\u0120sensation", "7677": "\u0120secure", "7678": "\u0120scen", "7679": "\u0120sandpit", "7680": "\u0120rect", "7681": "\u0120rats", "7682": "\u0120rust", "7683": "\u0120queens", "7684": "\u0120purpose", "7685": "\u0120purrs", "7686": "\u0120pokes", "7687": "\u0120playhouse", "7688": "\u0120plot", "7689": "\u0120patches", "7690": "\u0120packages", "7691": "\u0120nuzzled", "7692": "\u0120needles", "7693": "\u0120napped", "7694": "\u0120moonlight", "7695": "\u0120miller", "7696": "\u0120messes", "7697": "\u0120lowered", "7698": "\u0120lizards", "7699": "\u0120librarian", "7700": "\u0120languages", "7701": "\u0120lent", "7702": "\u0120lantern", "7703": "\u0120lamb", "7704": "\u0120knots", "7705": "\u0120joyful", "7706": "\u0120invitations", "7707": "\u0120hedgehog", "7708": "\u0120height", "7709": "\u0120haircuts", "7710": "\u0120hoo", "7711": "\u0120guessing", "7712": "\u0120groaned", "7713": "\u0120grabbing", "7714": "\u0120fooled", "7715": "\u0120enthusiasm", "7716": "\u0120dresser", "7717": "\u0120drawn", "7718": "\u0120disobey", "7719": "\u0120designs", "7720": "\u0120crossing", "7721": "\u0120cracker", "7722": "\u0120craft", "7723": "\u0120connected", "7724": "\u0120cons", "7725": "\u0120cosy", "7726": "\u0120coach", "7727": "\u0120cleaner", "7728": "\u0120cautiously", "7729": "\u0120caw", "7730": "\u0120bruises", "7731": "\u0120breathing", "7732": "\u0120bothering", "7733": "\u0120bothered", "7734": "\u0120bellies", "7735": "\u0120behavior", "7736": "\u0120beginning", "7737": "\u0120beehive", "7738": "\u0120bully", "7739": "\u0120arrives", "7740": "\u0120aim", "7741": "\u0120Yellow", "7742": "\u0120Woof", "7743": "\u0120Willy", "7744": "\u0120Time", "7745": "\u0120Steppy", "7746": "\u0120Stret", "7747": "\u0120Smoke", "7748": "\u0120Ria", "7749": "\u0120Puppy", "7750": "\u0120Purr", "7751": "\u0120Pizza", "7752": "\u0120Pill", "7753": "\u0120Mamma", "7754": "\u0120Luckily", "7755": "\u0120Lion", "7756": "\u0120Kayla", "7757": "\u0120Jay", "7758": "\u0120Isn", "7759": "\u0120Forky", "7760": "\u0120Claire", "7761": "\u0120Cloud", "7762": "\u0120Chr", "7763": "\u0120Cha", "7764": "\u0120CD", "7765": "\u0120Bloom", "7766": "\u0120Bi", "7767": "\u0120Although", "7768": "\u0120App", "7769": "\u0120Abbie", "7770": "\u01202", "7771": "zoom", "7772": "zi", "7773": "yes", "7774": "ushroom", "7775": "urrender", "7776": "ummies", "7777": "ulf", "7778": "that", "7779": "tock", "7780": "seed", "7781": "river", "7782": "rie", "7783": "rig", "7784": "ppies", "7785": "orter", "7786": "orking", "7787": "onies", "7788": "omb", "7789": "ley", "7790": "ldy", "7791": "izon", "7792": "ivity", "7793": "initely", "7794": "immer", "7795": "illed", "7796": "ighty", "7797": "iddy", "7798": "iving", "7799": "iky", "7800": "ibbles", "7801": "fus", "7802": "ertain", "7803": "eling", "7804": "ears", "7805": "ezi", "7806": "byes", "7807": "beep", "7808": "ba", "7809": "aterpillar", "7810": "armen", "7811": "annah", "7812": "anet", "7813": "anced", "7814": "agic", "7815": "afy", "7816": "ailey", "7817": "Zip", "7818": "Which", "7819": "Sharing", "7820": "Ray", "7821": "Pip", "7822": "Pinky", "7823": "Marie", "7824": "Freddy", "7825": "By", "7826": "Brian", "7827": "Bounce", "7828": "\u0120worrying", "7829": "\u0120wobble", "7830": "\u0120wisely", "7831": "\u0120whoosh", "7832": "\u0120wept", "7833": "\u0120waterfall", "7834": "\u0120waded", "7835": "\u0120wider", "7836": "\u0120uniforms", "7837": "\u0120tying", "7838": "\u0120tummies", "7839": "\u0120tumbled", "7840": "\u0120sweaters", "7841": "\u0120sweep", "7842": "\u0120suffering", "7843": "\u0120streamers", "7844": "\u0120storekeeper", "7845": "\u0120stomp", "7846": "\u0120stamped", "7847": "\u0120squaw", "7848": "\u0120springing", "7849": "\u0120sniffled", "7850": "\u0120slapping", "7851": "\u0120shops", "7852": "\u0120serv", "7853": "\u0120screws", "7854": "\u0120scratching", "7855": "\u0120scurry", "7856": "\u0120sav", "7857": "\u0120respond", "7858": "\u0120relaxing", "7859": "\u0120rectangle", "7860": "\u0120realizing", "7861": "\u0120probably", "7862": "\u0120possess", "7863": "\u0120pinching", "7864": "\u0120peeled", "7865": "\u0120ponies", "7866": "\u0120noticing", "7867": "\u0120motorcycles", "7868": "\u0120months", "7869": "\u0120momma", "7870": "\u0120moons", "7871": "\u0120minding", "7872": "\u0120mints", "7873": "\u0120meaning", "7874": "\u0120meals", "7875": "\u0120massages", "7876": "\u0120marker", "7877": "\u0120manners", "7878": "\u0120larger", "7879": "\u0120labels", "7880": "\u0120laces", "7881": "\u0120kings", "7882": "\u0120jobs", "7883": "\u0120instruments", "7884": "\u0120insisting", "7885": "\u0120inj", "7886": "\u0120horizon", "7887": "\u0120handsome", "7888": "\u0120goodbyes", "7889": "\u0120glared", "7890": "\u0120giggles", "7891": "\u0120gems", "7892": "\u0120gasps", "7893": "\u0120gest", "7894": "\u0120focus", "7895": "\u0120films", "7896": "\u0120fills", "7897": "\u0120exercises", "7898": "\u0120encouragement", "7899": "\u0120encouraging", "7900": "\u0120encount", "7901": "\u0120edges", "7902": "\u0120doorway", "7903": "\u0120displayed", "7904": "\u0120discussed", "7905": "\u0120destroying", "7906": "\u0120definitely", "7907": "\u0120deed", "7908": "\u0120dances", "7909": "\u0120dip", "7910": "\u0120daring", "7911": "\u0120creativity", "7912": "\u0120crackers", "7913": "\u0120cowb", "7914": "\u0120correctly", "7915": "\u0120convin", "7916": "\u0120clues", "7917": "\u0120clicked", "7918": "\u0120cheaper", "7919": "\u0120changes", "7920": "\u0120centre", "7921": "\u0120center", "7922": "\u0120cares", "7923": "\u0120coug", "7924": "\u0120brightest", "7925": "\u0120blast", "7926": "\u0120birdseed", "7927": "\u0120belongings", "7928": "\u0120beeped", "7929": "\u0120bomb", "7930": "\u0120bitten", "7931": "\u0120aeroplanes", "7932": "\u0120admiration", "7933": "\u0120activity", "7934": "\u0120University", "7935": "\u0120Tree", "7936": "\u0120Tiger", "7937": "\u0120Tidy", "7938": "\u0120Take", "7939": "\u0120Spoon", "7940": "\u0120Spidey", "7941": "\u0120Rufus", "7942": "\u0120Rich", "7943": "\u0120Rain", "7944": "\u0120Rachel", "7945": "\u0120Okay", "7946": "\u0120Oink", "7947": "\u0120Nobody", "7948": "\u0120Nibbles", "7949": "\u0120Mixy", "7950": "\u0120Melissa", "7951": "\u0120Meowny", "7952": "\u0120Mushroom", "7953": "\u0120Mop", "7954": "\u0120Mighty", "7955": "\u0120Man", "7956": "\u0120Louise", "7957": "\u0120Leafy", "7958": "\u0120Jody", "7959": "\u0120Jump", "7960": "\u0120Jem", "7961": "\u0120Granny", "7962": "\u0120Frankie", "7963": "\u0120Flora", "7964": "\u0120Flame", "7965": "\u0120Fire", "7966": "\u0120Farmer", "7967": "\u0120Elsa", "7968": "\u0120Doll", "7969": "\u0120Daniel", "7970": "\u0120Croco", "7971": "\u0120Crabby", "7972": "\u0120Cocoa", "7973": "\u0120Climb", "7974": "\u0120Chirp", "7975": "\u0120Comet", "7976": "\u0120Books", "7977": "\u0120Bumpy", "7978": "\u0120Angela", "7979": "\u0120ill", "7980": "years", "7981": "yl", "7982": "while", "7983": "ushing", "7984": "urple", "7985": "umphrey", "7986": "ums", "7987": "udrey", "7988": "stalk", "7989": "ssy", "7990": "roken", "7991": "rigued", "7992": "retty", "7993": "rab", "7994": "ounced", "7995": "ophia", "7996": "ongr", "7997": "onse", "7998": "onna", "7999": "omp", "8000": "ntil", "8001": "mbers", "8002": "keepers", "8003": "izziness", "8004": "iter", "8005": "irls", "8006": "inald", "8007": "icip", "8008": "ibby", "8009": "hings", "8010": "guess", "8011": "exi", "8012": "erms", "8013": "erk", "8014": "erious", "8015": "ering", "8016": "ending", "8017": "eeling", "8018": "driver", "8019": "ctar", "8020": "cused", "8021": "boat", "8022": "broken", "8023": "bi", "8024": "bage", "8025": "aya", "8026": "aturday", "8027": "atty", "8028": "asty", "8029": "arty", "8030": "apers", "8031": "apaya", "8032": "antha", "8033": "anwhile", "8034": "acing", "8035": "ais", "8036": "act", "8037": "Want", "8038": "Tilly", "8039": "Slow", "8040": "Rock", "8041": "RR", "8042": "Quick", "8043": "Pr", "8044": "Papa", "8045": "Only", "8046": "Olive", "8047": "Nothing", "8048": "Jolly", "8049": "Instead", "8050": "However", "8051": "Frank", "8052": "Dear", "8053": "Deal", "8054": "Birdy", "8055": "Behind", "8056": "Bop", "8057": "Albert", "8058": "====", "8059": ",'", "8060": "\u0120wrinkled", "8061": "\u0120writer", "8062": "\u0120whales", "8063": "\u0120wig", "8064": "\u0120visits", "8065": "\u0120visitor", "8066": "\u0120vests", "8067": "\u0120vehicles", "8068": "\u0120twinkle", "8069": "\u0120travelling", "8070": "\u0120toward", "8071": "\u0120toad", "8072": "\u0120throughout", "8073": "\u0120thoughts", "8074": "\u0120tapped", "8075": "\u0120tuck", "8076": "\u0120ties", "8077": "\u0120streets", "8078": "\u0120stirs", "8079": "\u0120sternly", "8080": "\u0120stun", "8081": "\u0120stings", "8082": "\u0120stall", "8083": "\u0120stacked", "8084": "\u0120sprinkled", "8085": "\u0120snorted", "8086": "\u0120simply", "8087": "\u0120shall", "8088": "\u0120sets", "8089": "\u0120seagulls", "8090": "\u0120seals", "8091": "\u0120scurrying", "8092": "\u0120screwdriver", "8093": "\u0120sadder", "8094": "\u0120runner", "8095": "\u0120rods", "8096": "\u0120risks", "8097": "\u0120returning", "8098": "\u0120response", "8099": "\u0120rewards", "8100": "\u0120reapp", "8101": "\u0120races", "8102": "\u0120rotten", "8103": "\u0120presented", "8104": "\u0120preparing", "8105": "\u0120pours", "8106": "\u0120politely", "8107": "\u0120plug", "8108": "\u0120pens", "8109": "\u0120pennies", "8110": "\u0120pays", "8111": "\u0120panicked", "8112": "\u0120puff", "8113": "\u0120owners", "8114": "\u0120outfits", "8115": "\u0120observing", "8116": "\u0120nectar", "8117": "\u0120nur", "8118": "\u0120nasty", "8119": "\u0120mesmerized", "8120": "\u0120members", "8121": "\u0120mayor", "8122": "\u0120magician", "8123": "\u0120mitt", "8124": "\u0120hissing", "8125": "\u0120hesitant", "8126": "\u0120hamm", "8127": "\u0120greeted", "8128": "\u0120grassy", "8129": "\u0120glitt", "8130": "\u0120genie", "8131": "\u0120garbage", "8132": "\u0120gonna", "8133": "\u0120floats", "8134": "\u0120flaps", "8135": "\u0120fishermen", "8136": "\u0120farmers", "8137": "\u0120faded", "8138": "\u0120driveway", "8139": "\u0120differences", "8140": "\u0120demanding", "8141": "\u0120delayed", "8142": "\u0120dangers", "8143": "\u0120damaged", "8144": "\u0120dizziness", "8145": "\u0120cutter", "8146": "\u0120creations", "8147": "\u0120cops", "8148": "\u0120consider", "8149": "\u0120concer", "8150": "\u0120commun", "8151": "\u0120common", "8152": "\u0120cleared", "8153": "\u0120classmates", "8154": "\u0120clue", "8155": "\u0120characters", "8156": "\u0120cafe", "8157": "\u0120burst", "8158": "\u0120budge", "8159": "\u0120bubb", "8160": "\u0120bravest", "8161": "\u0120braver", "8162": "\u0120bol", "8163": "\u0120boards", "8164": "\u0120blocked", "8165": "\u0120bits", "8166": "\u0120beloved", "8167": "\u0120beanstalk", "8168": "\u0120beaver", "8169": "\u0120beast", "8170": "\u0120bathed", "8171": "\u0120aware", "8172": "\u0120aren", "8173": "\u0120anticip", "8174": "\u0120annoying", "8175": "\u0120allowing", "8176": "\u0120affect", "8177": "\u0120acts", "8178": "\u0120ais", "8179": "\u0120Yog", "8180": "\u0120Wonder", "8181": "\u0120Uni", "8182": "\u0120Until", "8183": "\u0120Toy", "8184": "\u0120Tato", "8185": "\u0120Swing", "8186": "\u0120Stan", "8187": "\u0120Spinny", "8188": "\u0120Slinky", "8189": "\u0120Shampoo", "8190": "\u0120Seat", "8191": "\u0120Sk", "8192": "\u0120Saturday", "8193": "\u0120Reginald", "8194": "\u0120Roy", "8195": "\u0120Ralph", "8196": "\u0120Pl", "8197": "\u0120Ouch", "8198": "\u0120Old", "8199": "\u0120Number", "8200": "\u0120Navy", "8201": "\u0120Mic", "8202": "\u0120Leopard", "8203": "\u0120Luc", "8204": "\u0120Lauren", "8205": "\u0120Kelly", "8206": "\u0120Judge", "8207": "\u0120Joan", "8208": "\u0120Giant", "8209": "\u0120Flexible", "8210": "\u0120Flappy", "8211": "\u0120Flap", "8212": "\u0120Eddie", "8213": "\u0120Cross", "8214": "\u0120Cici", "8215": "\u0120Bucky", "8216": "\u0120Bad", "8217": "\u0120Apple", "8218": "\u0120Arm", "8219": "\u0120Ant", "8220": "\u00e2\u0122\u00a6", "8221": "ylv", "8222": "ylvia", "8223": "water", "8224": "veral", "8225": "upin", "8226": "uggy", "8227": "uses", "8228": "sol", "8229": "sn", "8230": "rave", "8231": "rinky", "8232": "quet", "8233": "parent", "8234": "ouquet", "8235": "oochy", "8236": "olo", "8237": "ments", "8238": "lect", "8239": "laire", "8240": "line", "8241": "jack", "8242": "izzie", "8243": "ivia", "8244": "ironment", "8245": "immering", "8246": "illip", "8247": "ift", "8248": "iece", "8249": "ics", "8250": "ib", "8251": "hole", "8252": "giving", "8253": "esses", "8254": "erts", "8255": "elope", "8256": "elie", "8257": "date", "8258": "creams", "8259": "cloud", "8260": "ckless", "8261": "cted", "8262": "cent", "8263": "bird", "8264": "bed", "8265": "athan", "8266": "atitude", "8267": "asha", "8268": "anga", "8269": "acle", "8270": "acher", "8271": "aven", "8272": "Willow", "8273": "Uncle", "8274": "Trust", "8275": "Tw", "8276": "Sof", "8277": "Should", "8278": "Sadie", "8279": "Ralph", "8280": "Promise", "8281": "Mon", "8282": "Leave", "8283": "King", "8284": "Johny", "8285": "Isabella", "8286": "Hmm", "8287": "Goodnight", "8288": "Does", "8289": "Claire", "8290": "Both", "8291": "Binky", "8292": "Beth", "8293": "Ava", "8294": "Adam", "8295": "\u0120yelped", "8296": "\u0120wiser", "8297": "\u0120wadd", "8298": "\u0120vibr", "8299": "\u0120unable", "8300": "\u0120traveling", "8301": "\u0120trading", "8302": "\u0120theat", "8303": "\u0120terrified", "8304": "\u0120temperature", "8305": "\u0120teachers", "8306": "\u0120tale", "8307": "\u0120symbols", "8308": "\u0120syrup", "8309": "\u0120sweetest", "8310": "\u0120swallow", "8311": "\u0120supporting", "8312": "\u0120sunflowers", "8313": "\u0120stores", "8314": "\u0120stomachs", "8315": "\u0120statues", "8316": "\u0120squealed", "8317": "\u0120sprays", "8318": "\u0120snug", "8319": "\u0120snar", "8320": "\u0120slithered", "8321": "\u0120slips", "8322": "\u0120skate", "8323": "\u0120shines", "8324": "\u0120shares", "8325": "\u0120shorter", "8326": "\u0120shh", "8327": "\u0120several", "8328": "\u0120scolds", "8329": "\u0120scent", "8330": "\u0120sailors", "8331": "\u0120sailboat", "8332": "\u0120sou", "8333": "\u0120rustling", "8334": "\u0120roars", "8335": "\u0120rivers", "8336": "\u0120realizes", "8337": "\u0120reckless", "8338": "\u0120reass", "8339": "\u0120raking", "8340": "\u0120rack", "8341": "\u0120quacking", "8342": "\u0120puzzled", "8343": "\u0120postc", "8344": "\u0120plugged", "8345": "\u0120pills", "8346": "\u0120permitted", "8347": "\u0120performer", "8348": "\u0120performance", "8349": "\u0120pedaled", "8350": "\u0120packet", "8351": "\u0120pouch", "8352": "\u0120pant", "8353": "\u0120opinions", "8354": "\u0120offering", "8355": "\u0120newspapers", "8356": "\u0120nervously", "8357": "\u0120mushy", "8358": "\u0120munching", "8359": "\u0120meowing", "8360": "\u0120materials", "8361": "\u0120mailing", "8362": "\u0120magazines", "8363": "\u0120lungs", "8364": "\u0120lunchtime", "8365": "\u0120longest", "8366": "\u0120lun", "8367": "\u0120jing", "8368": "\u0120invites", "8369": "\u0120intrigued", "8370": "\u0120hotter", "8371": "\u0120hisses", "8372": "\u0120hesitation", "8373": "\u0120guards", "8374": "\u0120grandparent", "8375": "\u0120gratitude", "8376": "\u0120glows", "8377": "\u0120generosity", "8378": "\u0120gap", "8379": "\u0120funn", "8380": "\u0120forgiveness", "8381": "\u0120forgives", "8382": "\u0120focused", "8383": "\u0120flavors", "8384": "\u0120fist", "8385": "\u0120exploration", "8386": "\u0120express", "8387": "\u0120except", "8388": "\u0120envelopes", "8389": "\u0120environment", "8390": "\u0120encountered", "8391": "\u0120earned", "8392": "\u0120eld", "8393": "\u0120dressing", "8394": "\u0120dreamt", "8395": "\u0120dollars", "8396": "\u0120disturbing", "8397": "\u0120disagre", "8398": "\u0120digs", "8399": "\u0120desserts", "8400": "\u0120despite", "8401": "\u0120defe", "8402": "\u0120cupcakes", "8403": "\u0120cuddles", "8404": "\u0120crowd", "8405": "\u0120croaked", "8406": "\u0120corns", "8407": "\u0120convinced", "8408": "\u0120comforting", "8409": "\u0120collap", "8410": "\u0120cloudy", "8411": "\u0120cloths", "8412": "\u0120closing", "8413": "\u0120clerk", "8414": "\u0120choosing", "8415": "\u0120chewy", "8416": "\u0120cheat", "8417": "\u0120certain", "8418": "\u0120bud", "8419": "\u0120birdhouse", "8420": "\u0120beaming", "8421": "\u0120batt", "8422": "\u0120baskets", "8423": "\u0120bouquet", "8424": "\u0120bound", "8425": "\u0120artist", "8426": "\u0120appreciation", "8427": "\u0120anticipation", "8428": "\u0120amused", "8429": "\u0120Zoey", "8430": "\u0120William", "8431": "\u0120Whip", "8432": "\u0120Wait", "8433": "\u0120Violet", "8434": "\u0120Tweety", "8435": "\u0120Thermometer", "8436": "\u0120Tick", "8437": "\u0120Tibby", "8438": "\u0120Shiny", "8439": "\u0120Robot", "8440": "\u0120Ready", "8441": "\u0120Razor", "8442": "\u0120Quack", "8443": "\u0120Penelope", "8444": "\u0120Peep", "8445": "\u0120Pop", "8446": "\u0120Pol", "8447": "\u0120Playing", "8448": "\u0120Pippy", "8449": "\u0120Only", "8450": "\u0120Op", "8451": "\u0120Oh", "8452": "\u0120Nate", "8453": "\u0120Marsh", "8454": "\u0120Moppy", "8455": "\u0120Mina", "8456": "\u0120Milo", "8457": "\u0120Laura", "8458": "\u0120Lexi", "8459": "\u0120Land", "8460": "\u0120June", "8461": "\u0120Hatty", "8462": "\u0120Fun", "8463": "\u0120Fix", "8464": "\u0120Everybody", "8465": "\u0120Dust", "8466": "\u0120Despite", "8467": "\u0120Chug", "8468": "\u0120Chuck", "8469": "\u0120Chip", "8470": "\u0120Cle", "8471": "\u0120Caterpillar", "8472": "\u0120Brush", "8473": "\u0120Bobba", "8474": "\u0120Brave", "8475": "\u0120Auntie", "8476": "\u0120Amanda", "8477": "\u0120Audrey", "8478": "\u0120Aly", "8479": "\u0120Abi", "8480": "\u0120''", "8481": "\u01205", "8482": "yan", "8483": "weed", "8484": "ullaby", "8485": "ula", "8486": "ugging", "8487": "uise", "8488": "stick", "8489": "ssa", "8490": "snap", "8491": "sers", "8492": "rya", "8493": "riendship", "8494": "pop", "8495": "ots", "8496": "otato", "8497": "ortunately", "8498": "ordan", "8499": "ookie", "8500": "ongrat", "8501": "ongratul", "8502": "onst", "8503": "oint", "8504": "oever", "8505": "occo", "8506": "off", "8507": "ming", "8508": "mate", "8509": "lor", "8510": "ita", "8511": "ircle", "8512": "ipes", "8513": "inted", "8514": "ildren", "8515": "ige", "8516": "ienced", "8517": "idence", "8518": "iden", "8519": "icent", "8520": "ivery", "8521": "fficer", "8522": "fl", "8523": "fire", "8524": "ets", "8525": "eresa", "8526": "emies", "8527": "elina", "8528": "earl", "8529": "cri", "8530": "bbers", "8531": "bell", "8532": "bank", "8533": "azy", "8534": "att", "8535": "assport", "8536": "asers", "8537": "armony", "8538": "arlings", "8539": "angles", "8540": "ampered", "8541": "amedics", "8542": "aisies", "8543": "agnet", "8544": "abelle", "8545": "Zoe", "8546": "Wake", "8547": "Suzie", "8548": "Someone", "8549": "Sofia", "8550": "Snow", "8551": "Sun", "8552": "Squeaky", "8553": "Splash", "8554": "Speedy", "8555": "Robert", "8556": "Robby", "8557": "Mother", "8558": "Mel", "8559": "Kiki", "8560": "Kids", "8561": "Karen", "8562": "Jess", "8563": "Jacob", "8564": "Ice", "8565": "Hoppy", "8566": "Ho", "8567": "Got", "8568": "Gogo", "8569": "Gigi", "8570": "Froggy", "8571": "Finny", "8572": "Eat", "8573": "Danger", "8574": "Carl", "8575": "Anne", "8576": "Abigail", "8577": "\u0120\u00e2\u0122\u0136", "8578": "\u0120winks", "8579": "\u0120whispering", "8580": "\u0120whimpered", "8581": "\u0120whiskers", "8582": "\u0120whir", "8583": "\u0120whine", "8584": "\u0120welcoming", "8585": "\u0120washes", "8586": "\u0120warmly", "8587": "\u0120vibrant", "8588": "\u0120unwrap", "8589": "\u0120understands", "8590": "\u0120undone", "8591": "\u0120type", "8592": "\u0120tunes", "8593": "\u0120triangles", "8594": "\u0120travels", "8595": "\u0120towns", "8596": "\u0120toolbox", "8597": "\u0120tidied", "8598": "\u0120thundercloud", "8599": "\u0120theatre", "8600": "\u0120tentacles", "8601": "\u0120teams", "8602": "\u0120swimsuits", "8603": "\u0120suns", "8604": "\u0120suits", "8605": "\u0120suitcase", "8606": "\u0120styles", "8607": "\u0120strum", "8608": "\u0120storms", "8609": "\u0120steering", "8610": "\u0120spoiling", "8611": "\u0120spy", "8612": "\u0120soot", "8613": "\u0120snowfl", "8614": "\u0120smoother", "8615": "\u0120smartest", "8616": "\u0120sleds", "8617": "\u0120situations", "8618": "\u0120sirens", "8619": "\u0120shrank", "8620": "\u0120shinier", "8621": "\u0120seconds", "8622": "\u0120seaweed", "8623": "\u0120scraped", "8624": "\u0120scampered", "8625": "\u0120salon", "8626": "\u0120robe", "8627": "\u0120robbers", "8628": "\u0120riverbank", "8629": "\u0120riches", "8630": "\u0120resisted", "8631": "\u0120repairs", "8632": "\u0120refreshing", "8633": "\u0120realise", "8634": "\u0120reun", "8635": "\u0120rely", "8636": "\u0120rushing", "8637": "\u0120quarreled", "8638": "\u0120pupils", "8639": "\u0120providing", "8640": "\u0120pressing", "8641": "\u0120practised", "8642": "\u0120prove", "8643": "\u0120prank", "8644": "\u0120playdate", "8645": "\u0120plans", "8646": "\u0120pecks", "8647": "\u0120passen", "8648": "\u0120paramedics", "8649": "\u0120puck", "8650": "\u0120pound", "8651": "\u0120owls", "8652": "\u0120obeyed", "8653": "\u0120odd", "8654": "\u0120nibbled", "8655": "\u0120niece", "8656": "\u0120mugs", "8657": "\u0120mixture", "8658": "\u0120messed", "8659": "\u0120medals", "8660": "\u0120mer", "8661": "\u0120lumberjack", "8662": "\u0120luckily", "8663": "\u0120locks", "8664": "\u0120lectures", "8665": "\u0120lullaby", "8666": "\u0120joyfully", "8667": "\u0120jets", "8668": "\u0120injured", "8669": "\u0120hunters", "8670": "\u0120hiss", "8671": "\u0120hippos", "8672": "\u0120heron", "8673": "\u0120helicopters", "8674": "\u0120heartbroken", "8675": "\u0120heaven", "8676": "\u0120hatch", "8677": "\u0120habit", "8678": "\u0120guarding", "8679": "\u0120guided", "8680": "\u0120guesses", "8681": "\u0120grumbled", "8682": "\u0120glanced", "8683": "\u0120gesture", "8684": "\u0120glee", "8685": "\u0120foggy", "8686": "\u0120flips", "8687": "\u0120fixer", "8688": "\u0120fires", "8689": "\u0120finishing", "8690": "\u0120final", "8691": "\u0120facts", "8692": "\u0120faith", "8693": "\u0120failed", "8694": "\u0120fulf", "8695": "\u0120explains", "8696": "\u0120explo", "8697": "\u0120experienced", "8698": "\u0120expecting", "8699": "\u0120enemies", "8700": "\u0120echoed", "8701": "\u0120doorbell", "8702": "\u0120disobeyed", "8703": "\u0120disagreement", "8704": "\u0120digger", "8705": "\u0120differently", "8706": "\u0120designing", "8707": "\u0120demonst", "8708": "\u0120delaying", "8709": "\u0120delivery", "8710": "\u0120daddies", "8711": "\u0120ding", "8712": "\u0120darlings", "8713": "\u0120daisies", "8714": "\u0120crowns", "8715": "\u0120crocodiles", "8716": "\u0120crickets", "8717": "\u0120creamy", "8718": "\u0120crashing", "8719": "\u0120covering", "8720": "\u0120cousins", "8721": "\u0120cottage", "8722": "\u0120conduct", "8723": "\u0120concerned", "8724": "\u0120compete", "8725": "\u0120coloring", "8726": "\u0120clut", "8727": "\u0120chews", "8728": "\u0120cells", "8729": "\u0120carve", "8730": "\u0120cables", "8731": "\u0120causing", "8732": "\u0120bulbs", "8733": "\u0120bolt", "8734": "\u0120blooms", "8735": "\u0120blur", "8736": "\u0120blades", "8737": "\u0120blade", "8738": "\u0120bendy", "8739": "\u0120bends", "8740": "\u0120bless", "8741": "\u0120attend", "8742": "\u0120arr", "8743": "\u0120answering", "8744": "\u0120announced", "8745": "\u0120angrily", "8746": "\u0120angrier", "8747": "\u0120alley", "8748": "\u0120although", "8749": "\u0120aisle", "8750": "\u0120achieved", "8751": "\u0120ability", "8752": "\u0120Whoever", "8753": "\u0120Wise", "8754": "\u0120Well", "8755": "\u0120War", "8756": "\u0120Volly", "8757": "\u0120Trucky", "8758": "\u0120Todd", "8759": "\u0120Ty", "8760": "\u0120Tock", "8761": "\u0120Tizzy", "8762": "\u0120Teresa", "8763": "\u0120Sunshine", "8764": "\u0120Stealing", "8765": "\u0120Square", "8766": "\u0120Spicy", "8767": "\u0120Space", "8768": "\u0120Snowball", "8769": "\u0120Skip", "8770": "\u0120Summer", "8771": "\u0120Since", "8772": "\u0120Rude", "8773": "\u0120Roll", "8774": "\u0120Ryan", "8775": "\u0120Rita", "8776": "\u0120Ricky", "8777": "\u0120Rh", "8778": "\u0120Print", "8779": "\u0120Phillip", "8780": "\u0120Purple", "8781": "\u0120Point", "8782": "\u0120Pet", "8783": "\u0120Passport", "8784": "\u0120Party", "8785": "\u0120Papaya", "8786": "\u0120Oxygen", "8787": "\u0120Officer", "8788": "\u0120Mixie", "8789": "\u0120Melon", "8790": "\u0120Maya", "8791": "\u0120Muggy", "8792": "\u0120Ms", "8793": "\u0120More", "8794": "\u0120Make", "8795": "\u0120Maddie", "8796": "\u0120Laurie", "8797": "\u0120Lots", "8798": "\u0120Lazy", "8799": "\u0120Kanga", "8800": "\u0120Janey", "8801": "\u0120Jumpy", "8802": "\u0120Ice", "8803": "\u0120Hello", "8804": "\u0120Grand", "8805": "\u0120Flick", "8806": "\u0120Friendship", "8807": "\u0120Find", "8808": "\u0120Fair", "8809": "\u0120Dull", "8810": "\u0120Dot", "8811": "\u0120Dezi", "8812": "\u0120Clouds", "8813": "\u0120Cara", "8814": "\u0120Cable", "8815": "\u0120Bussy", "8816": "\u0120Booker", "8817": "\u0120Bobbie", "8818": "\u0120Birds", "8819": "\u0120Bibo", "8820": "\u0120Benji", "8821": "\u0120Beepy", "8822": "\u0120Band", "8823": "\u0120Albert", "8824": "\u0120Arya", "8825": "\u0120Ac", "8826": "\u00e2\u0122\u013f,", "8827": "wen", "8828": "vered", "8829": "venir", "8830": "undred", "8831": "unched", "8832": "ugar", "8833": "ubber", "8834": "uild", "8835": "uard", "8836": "uardo", "8837": "tha", "8838": "sel", "8839": "she", "8840": "sack", "8841": "roccoli", "8842": "rnie", "8843": "rints", "8844": "rest", "8845": "repe", "8846": "repeat", "8847": "rees", "8848": "rough", "8849": "rons", "8850": "rings", "8851": "rina", "8852": "ration", "8853": "quar", "8854": "quarium", "8855": "peed", "8856": "prints", "8857": "per", "8858": "ouraged", "8859": "orence", "8860": "opy", "8861": "ooks", "8862": "onnie", "8863": "okay", "8864": "ndles", "8865": "nor", "8866": "ne", "8867": "mel", "8868": "melon", "8869": "mar", "8870": "jamin", "8871": "ives", "8872": "ippers", "8873": "incy", "8874": "imals", "8875": "iggled", "8876": "igger", "8877": "ienna", "8878": "ieves", "8879": "icola", "8880": "icious", "8881": "icate", "8882": "ibil", "8883": "guard", "8884": "exit", "8885": "etchup", "8886": "essy", "8887": "ellyfish", "8888": "elieve", "8889": "elix", "8890": "eading", "8891": "even", "8892": "ese", "8893": "doo", "8894": "dog", "8895": "dmother", "8896": "dinky", "8897": "dges", "8898": "dad", "8899": "ctopuses", "8900": "couraged", "8901": "can", "8902": "cake", "8903": "balls", "8904": "aty", "8905": "ashing", "8906": "artha", "8907": "artled", "8908": "ansform", "8909": "andel", "8910": "amps", "8911": "ali", "8912": "ager", "8913": "acy", "8914": "accoon", "8915": "abrina", "8916": "aige", "8917": "Wiggly", "8918": "Two", "8919": "Theo", "8920": "Ted", "8921": "Tara", "8922": "Still", "8923": "Snap", "8924": "Shrinky", "8925": "Share", "8926": "Sadly", "8927": "Surrender", "8928": "Rabbit", "8929": "Polly", "8930": "Outside", "8931": "Open", "8932": "Nice", "8933": "Near", "8934": "Meanwhile", "8935": "Maria", "8936": "Martha", "8937": "Maddie", "8938": "Kelly", "8939": "Jackie", "8940": "Joy", "8941": "Jay", "8942": "Isn", "8943": "Hope", "8944": "Friends", "8945": "Fish", "8946": "En", "8947": "Duck", "8948": "Chloe", "8949": "Curious", "8950": "Caw", "8951": "Catch", "8952": "Bug", "8953": "Bo", "8954": "Belle", "8955": "Arthur", "8956": "Any", "8957": "',", "8958": "\u0120zookeepers", "8959": "\u0120wrapper", "8960": "\u0120wildf", "8961": "\u0120weighs", "8962": "\u0120webs", "8963": "\u0120weaker", "8964": "\u0120watermelon", "8965": "\u0120warri", "8966": "\u0120waistband", "8967": "\u0120untw", "8968": "\u0120untangle", "8969": "\u0120treated", "8970": "\u0120treas", "8971": "\u0120transform", "8972": "\u0120toucan", "8973": "\u0120tingling", "8974": "\u0120thanking", "8975": "\u0120thieves", "8976": "\u0120testing", "8977": "\u0120tempted", "8978": "\u0120switches", "8979": "\u0120swaying", "8980": "\u0120strolled", "8981": "\u0120stretches", "8982": "\u0120stomped", "8983": "\u0120stepping", "8984": "\u0120stains", "8985": "\u0120squawked", "8986": "\u0120spilling", "8987": "\u0120spies", "8988": "\u0120sped", "8989": "\u0120souvenir", "8990": "\u0120snowflakes", "8991": "\u0120snarled", "8992": "\u0120snapping", "8993": "\u0120slug", "8994": "\u0120skateboard", "8995": "\u0120silent", "8996": "\u0120shooed", "8997": "\u0120seeking", "8998": "\u0120scenery", "8999": "\u0120scre", "9000": "\u0120savanna", "9001": "\u0120reunited", "9002": "\u0120recipe", "9003": "\u0120ruff", "9004": "\u0120rout", "9005": "\u0120rises", "9006": "\u0120rider", "9007": "\u0120quilt", "9008": "\u0120protects", "9009": "\u0120posts", "9010": "\u0120poppies", "9011": "\u0120plumber", "9012": "\u0120peels", "9013": "\u0120peeks", "9014": "\u0120pearls", "9015": "\u0120particularly", "9016": "\u0120poop", "9017": "\u0120passes", "9018": "\u0120otherwise", "9019": "\u0120ostriches", "9020": "\u0120opt", "9021": "\u0120online", "9022": "\u0120occasions", "9023": "\u0120occasion", "9024": "\u0120obst", "9025": "\u0120novels", "9026": "\u0120nightfall", "9027": "\u0120neighbours", "9028": "\u0120minds", "9029": "\u0120mesmerised", "9030": "\u0120melts", "9031": "\u0120meatballs", "9032": "\u0120mattresses", "9033": "\u0120mur", "9034": "\u0120moo", "9035": "\u0120mate", "9036": "\u0120lifeguard", "9037": "\u0120lessons", "9038": "\u0120learner", "9039": "\u0120level", "9040": "\u0120lamps", "9041": "\u0120laz", "9042": "\u0120lur", "9043": "\u0120limp", "9044": "\u0120ketchup", "9045": "\u0120introducing", "9046": "\u0120intelligence", "9047": "\u0120intently", "9048": "\u0120instrument", "9049": "\u0120humming", "9050": "\u0120host", "9051": "\u0120heights", "9052": "\u0120hearing", "9053": "\u0120handing", "9054": "\u0120hamster", "9055": "\u0120haw", "9056": "\u0120huff", "9057": "\u0120hoof", "9058": "\u0120godmother", "9059": "\u0120giants", "9060": "\u0120gears", "9061": "\u0120germs", "9062": "\u0120freezing", "9063": "\u0120freedom", "9064": "\u0120forests", "9065": "\u0120forts", "9066": "\u0120footprints", "9067": "\u0120fluttering", "9068": "\u0120firefighter", "9069": "\u0120fences", "9070": "\u0120fet", "9071": "\u0120experiences", "9072": "\u0120examining", "9073": "\u0120exch", "9074": "\u0120erasers", "9075": "\u0120entering", "9076": "\u0120enjoyable", "9077": "\u0120endings", "9078": "\u0120emerged", "9079": "\u0120embra", "9080": "\u0120earrings", "9081": "\u0120dumped", "9082": "\u0120drip", "9083": "\u0120drift", "9084": "\u0120dodging", "9085": "\u0120dodged", "9086": "\u0120dives", "9087": "\u0120disguise", "9088": "\u0120disappears", "9089": "\u0120demonstrated", "9090": "\u0120dips", "9091": "\u0120det", "9092": "\u0120dep", "9093": "\u0120dashed", "9094": "\u0120dandel", "9095": "\u0120cruel", "9096": "\u0120coughed", "9097": "\u0120copied", "9098": "\u0120container", "9099": "\u0120confidence", "9100": "\u0120conductor", "9101": "\u0120concent", "9102": "\u0120computers", "9103": "\u0120combing", "9104": "\u0120clover", "9105": "\u0120clip", "9106": "\u0120cherish", "9107": "\u0120checking", "9108": "\u0120charge", "9109": "\u0120chatter", "9110": "\u0120calmly", "9111": "\u0120congratul", "9112": "\u0120burying", "9113": "\u0120boil", "9114": "\u0120bluebird", "9115": "\u0120bills", "9116": "\u0120beautif", "9117": "\u0120battle", "9118": "\u0120buddy", "9119": "\u0120born", "9120": "\u0120awful", "9121": "\u0120attem", "9122": "\u0120attack", "9123": "\u0120astronauts", "9124": "\u0120approach", "9125": "\u0120applauding", "9126": "\u0120aprons", "9127": "\u0120airplanes", "9128": "\u0120ages", "9129": "\u0120afford", "9130": "\u0120afar", "9131": "\u0120address", "9132": "\u0120accomplished", "9133": "\u0120aquarium", "9134": "\u0120Yogi", "9135": "\u0120Wooly", "9136": "\u0120Wolf", "9137": "\u0120Teacher", "9138": "\u0120Tra", "9139": "\u0120Tip", "9140": "\u0120Switch", "9141": "\u0120Sundays", "9142": "\u0120Still", "9143": "\u0120Spiky", "9144": "\u0120Slide", "9145": "\u0120Samantha", "9146": "\u0120Sophia", "9147": "\u0120Sly", "9148": "\u0120Rosa", "9149": "\u0120Rainbow", "9150": "\u0120Rae", "9151": "\u0120Rubber", "9152": "\u0120Rolly", "9153": "\u0120Rick", "9154": "\u0120Queeny", "9155": "\u0120Pupil", "9156": "\u0120Puss", "9157": "\u0120Printy", "9158": "\u0120Potato", "9159": "\u0120Poochy", "9160": "\u0120Orin", "9161": "\u0120Ox", "9162": "\u0120Nurse", "9163": "\u0120Monkey", "9164": "\u0120Martha", "9165": "\u0120Magnet", "9166": "\u0120Lupin", "9167": "\u0120Lumber", "9168": "\u0120Lime", "9169": "\u0120Life", "9170": "\u0120Kevin", "9171": "\u0120Johnson", "9172": "\u0120Jemma", "9173": "\u0120Jellyfish", "9174": "\u0120Jed", "9175": "\u0120Herbie", "9176": "\u0120Herb", "9177": "\u0120Humphrey", "9178": "\u0120Hank", "9179": "\u0120Grumpy", "9180": "\u0120Ginny", "9181": "\u0120Gill", "9182": "\u0120Fredrick", "9183": "\u0120Florence", "9184": "\u0120Felix", "9185": "\u0120Eduardo", "9186": "\u0120Dogs", "9187": "\u0120Deal", "9188": "\u0120Climbing", "9189": "\u0120Chris", "9190": "\u0120Chair", "9191": "\u0120Carlos", "9192": "\u0120Cars", "9193": "\u0120Cory", "9194": "\u0120Cookie", "9195": "\u0120Clive", "9196": "\u0120Celia", "9197": "\u0120Carmen", "9198": "\u0120Bury", "9199": "\u0120Bundles", "9200": "\u0120Breezy", "9201": "\u0120BeeBee", "9202": "\u0120Becky", "9203": "\u0120Barky", "9204": "\u0120Ballie", "9205": "\u0120Broccoli", "9206": "\u0120Bones", "9207": "\u0120Bessy", "9208": "\u0120Bang", "9209": "\u0120Annabelle", "9210": "\u0120Alyssa", "9211": "\u0120icky", "9212": "wee", "9213": "vas", "9214": "utely", "9215": "ussel", "9216": "usp", "9217": "uspicious", "9218": "usic", "9219": "upine", "9220": "uss", "9221": "tail", "9222": "stered", "9223": "storm", "9224": "solutely", "9225": "shop", "9226": "sey", "9227": "rett", "9228": "rent", "9229": "rances", "9230": "quee", "9231": "queeze", "9232": "peck", "9233": "pecker", "9234": "ousy", "9235": "ouple", "9236": "oula", "9237": "ouched", "9238": "oscope", "9239": "orth", "9240": "oray", "9241": "oebe", "9242": "oving", "9243": "of", "9244": "oard", "9245": "nif", "9246": "meow", "9247": "moo", "9248": "miest", "9249": "lescope", "9250": "lectric", "9251": "long", "9252": "lo", "9253": "lared", "9254": "lap", "9255": "kie", "9256": "ka", "9257": "just", "9258": "itive", "9259": "iran", "9260": "inct", "9261": "immi", "9262": "iment", "9263": "ilted", "9264": "ighting", "9265": "idier", "9266": "ico", "9267": "icated", "9268": "gets", "9269": "getic", "9270": "faction", "9271": "everse", "9272": "ethoscope", "9273": "etah", "9274": "erf", "9275": "enee", "9276": "ecc", "9277": "ecca", "9278": "ein", "9279": "cidents", "9280": "chard", "9281": "cupine", "9282": "cled", "9283": "cat", "9284": "boards", "9285": "beh", "9286": "bum", "9287": "build", "9288": "asketball", "9289": "asant", "9290": "arrin", "9291": "arley", "9292": "apons", "9293": "apes", "9294": "antr", "9295": "antelle", "9296": "antastic", "9297": "andas", "9298": "anion", "9299": "ampi", "9300": "amboo", "9301": "allows", "9302": "alf", "9303": "aint", "9304": "ails", "9305": "Zigzag", "9306": "Without", "9307": "William", "9308": "Wednesday", "9309": "Toot", "9310": "Tree", "9311": "Toto", "9312": "Tony", "9313": "Tam", "9314": "Stand", "9315": "Snowy", "9316": "Slowly", "9317": "Rover", "9318": "Ruff", "9319": "Pam", "9320": "Nora", "9321": "Nina", "9322": "Never", "9323": "Nate", "9324": "Megan", "9325": "Mouse", "9326": "Mint", "9327": "Milo", "9328": "Magic", "9329": "Luke", "9330": "Jonny", "9331": "June", "9332": "Janie", "9333": "Hippy", "9334": "Honey", "9335": "Grab", "9336": "Foxy", "9337": "Freeze", "9338": "Fortunately", "9339": "Fl", "9340": "Davey", "9341": "Down", "9342": "Ding", "9343": "Cheap", "9344": "Crab", "9345": "Candy", "9346": "Brown", "9347": "Brad", "9348": "Brrr", "9349": "Bless", "9350": "Back", "9351": "Baa", "9352": "Amanda", "9353": "Along", "9354": "Ahoy", "9355": "Aw", "9356": "Arrr", "9357": "\u0120zipping", "9358": "\u0120yummiest", "9359": "\u0120workshop", "9360": "\u0120woodpecker", "9361": "\u0120wolves", "9362": "\u0120woken", "9363": "\u0120windowsill", "9364": "\u0120winds", "9365": "\u0120wildflowers", "9366": "\u0120whoever", "9367": "\u0120waddled", "9368": "\u0120wiggly", "9369": "\u0120wicked", "9370": "\u0120valleys", "9371": "\u0120urging", "9372": "\u0120upside", "9373": "\u0120unwrapped", "9374": "\u0120underwater", "9375": "\u0120twenty", "9376": "\u0120treasured", "9377": "\u0120transformed", "9378": "\u0120trigger", "9379": "\u0120tours", "9380": "\u0120tossing", "9381": "\u0120timid", "9382": "\u0120tests", "9383": "\u0120tents", "9384": "\u0120telescope", "9385": "\u0120taps", "9386": "\u0120tumbling", "9387": "\u0120ter", "9388": "\u0120tend", "9389": "\u0120tantr", "9390": "\u0120sweeter", "9391": "\u0120swans", "9392": "\u0120surrendered", "9393": "\u0120successfully", "9394": "\u0120stunning", "9395": "\u0120strokes", "9396": "\u0120stretchy", "9397": "\u0120stored", "9398": "\u0120staffs", "9399": "\u0120stacking", "9400": "\u0120stethoscope", "9401": "\u0120squeezes", "9402": "\u0120squished", "9403": "\u0120spaces", "9404": "\u0120snowing", "9405": "\u0120sneezes", "9406": "\u0120sneaks", "9407": "\u0120snipped", "9408": "\u0120snip", "9409": "\u0120sleeps", "9410": "\u0120slaps", "9411": "\u0120sincere", "9412": "\u0120shrugs", "9413": "\u0120shrunk", "9414": "\u0120shoots", "9415": "\u0120shoo",
[...]
